<unk>	0
<s>	0
</s>	0
.	-2.96716
▁i	-3.37031
▁the	-3.41726
▁and	-3.66766
▁it	-3.72679
,	-3.8447
▁a	-3.87174
▁to	-3.92497
s	-4.1532
▁my	-4.26521
▁this	-4.3185
'	-4.32922
▁is	-4.5113
▁for	-4.52393
▁of	-4.53142
▁in	-4.78513
t	-4.78757
!	-4.83388
▁have	-4.95564
▁that	-4.95905
▁was	-4.98463
▁but	-5.04852
▁with	-5.06361
▁on	-5.0864
▁not	-5.15886
▁so	-5.22426
▁as	-5.29242
▁	-5.29587
▁product	-5.30464
▁great	-5.33549
▁you	-5.40569
▁they	-5.42166
▁are	-5.47075
▁love	-5.49701
▁like	-5.52544
▁very	-5.54437
▁use	-5.61201
▁these	-5.67996
▁good	-5.68703
▁be	-5.75599
▁one	-5.75687
▁all	-5.80504
▁me	-5.85954
▁just	-5.88918
▁can	-5.91326
▁would	-5.92413
▁when	-5.9373
▁them	-5.93943
▁out	-5.93994
▁really	-5.98313
▁had	-5.9854
▁we	-5.99023
▁or	-6.02384
▁will	-6.02397
▁hair	-6.02658
▁at	-6.03225
m	-6.04706
▁up	-6.04923
▁has	-6.05027
-	-6.0776
▁well	-6.09168
▁from	-6.09648
▁no	-6.1625
▁more	-6.16513
▁if	-6.16832
▁skin	-6.18758
▁get	-6.19223
▁used	-6.21692
▁after	-6.25034
▁time	-6.25855
ve	-6.28572
▁only	-6.29151
▁other	-6.29605
▁than	-6.3381
ed	-6.38515
▁using	-6.40134
▁much	-6.40955
ing	-6.41175
’	-6.41651
▁your	-6.41799
▁do	-6.4195
▁too	-6.42822
▁(	-6.42921
▁easy	-6.43029
▁don	-6.444
▁been	-6.44587
▁because	-6.44795
d	-6.46081
▁little	-6.46871
▁about	-6.49322
▁he	-6.51273
▁also	-6.51521
▁an	-6.55139
▁now	-6.56518
▁she	-6.57426
▁works	-6.58342
▁am	-6.59233
▁buy	-6.59936
▁even	-6.62485
▁best	-6.63571
▁day	-6.6468
▁recommend	-6.65249
▁nice	-6.65788
▁what	-6.66496
▁tried	-6.66514
▁taste	-6.67836
▁clean	-6.68917
▁does	-6.70998
▁there	-6.71765
▁any	-6.71774
▁better	-6.72098
i	-6.72435
▁did	-6.72785
▁smell	-6.73206
▁our	-6.73359
▁work	-6.73722
▁some	-6.74048
▁her	-6.76042
▁which	-6.77387
▁price	-6.77605
▁were	-6.77673
▁dog	-6.78001
▁first	-6.78083
▁feel	-6.78843
▁bought	-6.79035
)	-6.83578
▁how	-6.84318
▁over	-6.84677
▁off	-6.84974
▁soft	-6.86055
▁again	-6.86548
▁try	-6.87352
▁dry	-6.87476
▁didn	-6.8788
▁go	-6.91317
▁long	-6.91979
▁doesn	-6.93178
▁by	-6.93853
▁got	-6.9396
▁make	-6.94788
▁always	-6.95336
▁definitely	-6.95839
▁review	-6.96824
y	-6.97038
...	-6.97371
▁still	-6.99308
▁made	-7.00036
▁perfect	-7.00522
"	-7.02347
▁back	-7.02358
▁-	-7.03584
▁never	-7.04102
▁cat	-7.04239
▁way	-7.04489
▁brand	-7.06554
▁years	-7.06899
▁new	-7.07215
▁need	-7.07269
▁free	-7.07539
▁2	-7.07651
▁put	-7.0892
▁before	-7.10063
▁part	-7.10253
▁flavor	-7.112
re	-7.12205
▁received	-7.12422
▁two	-7.12741
▁every	-7.13289
▁"	-7.1477
▁water	-7.14943
▁keep	-7.15146
▁baby	-7.15692
▁think	-7.16013
▁quality	-7.16926
/	-7.16968
er	-7.17309
▁size	-7.17363
ly	-7.17477
▁without	-7.17745
▁since	-7.18501
▁food	-7.19312
▁old	-7.19557
▁then	-7.19619
▁coffee	-7.2169
▁could	-7.22083
▁loved	-7.22154
▁find	-7.22194
▁makes	-7.23772
▁scent	-7.24632
▁few	-7.26167
!!	-7.2624
▁bit	-7.27204
▁lot	-7.27615
▁fresh	-7.27674
▁products	-7.28049
▁take	-7.2815
▁3	-7.28704
▁enough	-7.30961
▁last	-7.31365
▁small	-7.31419
▁his	-7.3168
▁&	-7.32092
▁while	-7.32325
▁wash	-7.33094
▁color	-7.33345
▁amazing	-7.33827
▁their	-7.33831
this	-7.34798
▁found	-7.35048
▁happy	-7.36056
▁down	-7.37524
▁right	-7.38022
▁know	-7.38879
▁ever	-7.40115
▁many	-7.40275
ll	-7.40725
▁smells	-7.40762
▁loves	-7.4106
▁see	-7.41285
▁light	-7.43105
▁face	-7.43929
▁body	-7.44287
▁sure	-7.44695
▁different	-7.44745
▁most	-7.4476
▁say	-7.4585
▁into	-7.46171
▁smooth	-7.46627
▁give	-7.46935
▁far	-7.46996
▁who	-7.47003
▁around	-7.48669
▁sample	-7.48934
▁cats	-7.49352
▁night	-7.49825
▁thing	-7.50086
▁look	-7.51118
▁through	-7.51389
▁bottle	-7.51398
▁feeling	-7.51435
▁tea	-7.53463
▁promotion	-7.54465
▁however	-7.54605
▁wipes	-7.54833
▁same	-7.55291
▁worked	-7.55429
▁collected	-7.55444
▁hard	-7.55565
▁purchase	-7.56072
▁fit	-7.56084
▁[	-7.56565
a	-7.56843
▁want	-7.5702
▁box	-7.5797
.]	-7.58629
▁super	-7.58694
▁less	-7.59553
▁going	-7.59772
▁pretty	-7.60512
▁looking	-7.60544
▁something	-7.6073
▁him	-7.60997
▁bed	-7.6139
▁days	-7.61469
▁big	-7.61521
▁months	-7.62683
▁though	-7.62758
▁favorite	-7.63815
r	-7.64075
▁getting	-7.64958
▁another	-7.65041
▁thought	-7.65464
▁stuff	-7.65598
▁left	-7.66581
▁job	-7.66669
▁buying	-7.66992
▁being	-7.68282
▁sensitive	-7.68592
▁having	-7.68687
▁both	-7.68804
▁5	-7.69152
▁strong	-7.69573
▁dogs	-7.69942
▁actually	-7.70221
▁highly	-7.70494
▁bad	-7.70978
▁4	-7.72025
▁once	-7.7239
▁diapers	-7.72961
▁purchased	-7.73091
▁help	-7.73201
▁year	-7.7375
▁seems	-7.73942
▁came	-7.74074
n	-7.74511
e	-7.74608
▁bag	-7.74957
▁money	-7.75437
▁its	-7.76276
▁absolutely	-7.76656
).	-7.77022
▁brands	-7.773
▁away	-7.78145
?	-7.78619
▁daughter	-7.79027
▁home	-7.792
▁1	-7.8053
▁felt	-7.8057
▁son	-7.80837
▁easily	-7.8121
in	-7.81959
▁excellent	-7.82109
▁week	-7.83215
▁sleep	-7.83507
▁anything	-7.83733
▁able	-7.83833
▁brush	-7.83923
▁worth	-7.84085
!!!	-7.84297
▁times	-7.84556
▁eat	-7.84674
▁liked	-7.85151
▁cream	-7.85558
▁store	-7.85594
▁top	-7.85787
▁leave	-7.86642
▁come	-7.8716
▁clothes	-7.87511
:	-7.88283
▁fine	-7.88331
▁looks	-7.88678
▁house	-7.88724
▁started	-7.89443
▁oil	-7.89669
▁longer	-7.8976
▁quite	-7.89814
▁trying	-7.90651
it	-7.90803
▁leaves	-7.9109
▁problem	-7.91924
▁family	-7.92014
▁amazon	-7.92636
▁comfortable	-7.92875
▁wish	-7.93184
▁large	-7.93638
es	-7.94203
▁took	-7.95119
▁feels	-7.95441
▁razor	-7.96064
▁natural	-7.96207
▁needed	-7.97381
▁went	-7.97422
▁weeks	-7.97438
▁full	-7.97451
▁almost	-7.97675
▁usually	-7.9801
▁delicious	-7.98134
▁regular	-7.98456
▁drink	-7.98566
▁difference	-7.99108
▁pampers	-7.99287
▁everything	-7.99363
▁husband	-7.99694
▁should	-7.99927
▁month	-8.00081
▁teeth	-8.00182
▁order	-8.00671
▁quickly	-8.01108
▁those	-8.0112
▁white	-8.013
▁thick	-8.01712
▁where	-8.01795
▁wonderful	-8.0208
▁high	-8.02387
▁kids	-8.02533
▁morning	-8.02713
▁diaper	-8.02835
▁nothing	-8.03666
▁helps	-8.0383
▁ordered	-8.04576
▁expensive	-8.04629
▁awesome	-8.04698
the	-8.05046
▁several	-8.05474
▁fast	-8.05504
▁wasn	-8.05729
;	-8.06045
▁hold	-8.07273
▁especially	-8.07441
▁thank	-8.07956
▁won	-8.08059
▁tastes	-8.0855
▁side	-8.08969
▁re	-8.09466
▁own	-8.09776
▁seem	-8.10972
▁change	-8.11527
▁comes	-8.12024
▁amount	-8.12387
▁shampoo	-8.12607
▁goes	-8.12622
▁each	-8.12841
▁until	-8.12878
▁disappointed	-8.12914
▁whole	-8.12937
▁milk	-8.13531
▁extra	-8.1363
▁gave	-8.13775
▁gets	-8.13818
▁couple	-8.13836
or	-8.13857
▁people	-8.13863
▁ago	-8.14004
l	-8.14664
g	-8.14935
o	-8.15638
▁shave	-8.15802
▁may	-8.16358
▁taking	-8.16408
▁hot	-8.16613
▁next	-8.16873
▁overall	-8.17019
▁cleaning	-8.17256
▁lotion	-8.17336
▁wanted	-8.17377
▁sweet	-8.17526
▁shower	-8.1766
▁item	-8.17795
▁add	-8.1785
▁isn	-8.17952
c	-8.18351
▁said	-8.18909
▁results	-8.19167
▁hours	-8.19259
▁under	-8.19979
▁texture	-8.20004
▁us	-8.20161
▁recommended	-8.20165
▁room	-8.20795
▁ones	-8.20873
▁things	-8.21324
▁hands	-8.21363
▁hand	-8.2159
▁plastic	-8.22008
▁others	-8.22072
▁6	-8.22209
▁keeps	-8.22285
▁cup	-8.22295
▁sugar	-8.22854
▁such	-8.23294
▁minutes	-8.23443
▁reviews	-8.2355
▁value	-8.23577
▁weight	-8.23698
▁life	-8.23927
▁yet	-8.2448
▁wet	-8.24658
▁stay	-8.24664
▁end	-8.24776
▁conditioner	-8.25192
▁gel	-8.25667
▁mix	-8.25836
▁open	-8.26331
▁second	-8.26456
▁three	-8.26552
▁plus	-8.26609
▁noticed	-8.26687
▁head	-8.26866
▁already	-8.26963
▁daily	-8.26991
▁chocolate	-8.27238
▁quick	-8.27278
▁anyone	-8.27365
▁formula	-8.27532
▁why	-8.28049
b	-8.2825
▁cut	-8.28341
▁clear	-8.28553
▁helped	-8.28939
▁half	-8.28985
▁protein	-8.29311
▁place	-8.29417
▁done	-8.29687
▁expected	-8.30173
▁glad	-8.30407
▁mouth	-8.30489
▁tell	-8.30587
▁10	-8.308
▁wear	-8.31413
▁moisture	-8.3145
▁butter	-8.32062
al	-8.32146
▁deodorant	-8.32417
▁set	-8.32691
▁healthy	-8.32934
▁must	-8.33348
▁enjoy	-8.33358
▁lovely	-8.33516
▁probably	-8.33961
▁heavy	-8.34026
▁issues	-8.3408
▁easier	-8.34521
▁let	-8.34885
▁making	-8.35078
▁close	-8.35398
▁dark	-8.35714
▁kind	-8.36081
▁during	-8.36188
▁fact	-8.36204
▁perfectly	-8.36351
▁ingredients	-8.36351
▁thanks	-8.36679
▁ultra	-8.36751
▁working	-8.37266
▁wouldn	-8.37788
able	-8.37863
▁instead	-8.37924
▁past	-8.3837
▁pain	-8.38801
▁completely	-8.38869
▁stars	-8.3935
▁either	-8.39383
▁else	-8.39408
▁car	-8.39606
▁couldn	-8.4012
▁haven	-8.40361
▁decided	-8.40584
▁spray	-8.41396
▁apply	-8.41529
▁powder	-8.41831
▁myself	-8.41835
▁real	-8.41969
▁gentle	-8.41987
▁pack	-8.42086
▁cold	-8.42164
▁black	-8.42427
▁here	-8.42784
▁ok	-8.42862
▁maybe	-8.42885
▁exactly	-8.43162
▁pleased	-8.43221
▁colour	-8.43379
▁might	-8.44215
k	-8.4481
and	-8.46476
▁friends	-8.46496
▁bags	-8.46589
▁continue	-8.46595
▁packaging	-8.46833
▁cover	-8.46974
▁together	-8.47079
▁gives	-8.47135
p	-8.47273
▁sometimes	-8.47279
▁prefer	-8.47328
▁bottom	-8.47653
▁red	-8.4816
▁olay	-8.48361
▁care	-8.48536
le	-8.48735
▁fan	-8.48803
▁read	-8.49316
▁package	-8.49571
▁low	-8.4969
▁problems	-8.49843
▁soap	-8.51063
▁sturdy	-8.5154
▁extremely	-8.51618
▁tasty	-8.518
▁looked	-8.52121
▁enjoyed	-8.52307
▁arrived	-8.52333
▁un	-8.5238
f	-8.52392
▁impressed	-8.52467
▁least	-8.52599
▁needs	-8.53203
x	-8.53878
▁b	-8.54378
▁inside	-8.54655
▁thin	-8.55087
▁often	-8.5514
▁design	-8.55517
▁pinchme	-8.55587
▁greasy	-8.55801
▁fits	-8.55802
▁added	-8.56174
▁paper	-8.56221
▁foundation	-8.56525
▁deal	-8.56789
▁everyone	-8.56794
▁says	-8.56964
▁stick	-8.5765
on	-8.58085
▁batteries	-8.58201
▁pet	-8.58808
▁line	-8.58878
▁smaller	-8.5931
▁per	-8.59503
▁run	-8.59509
▁washing	-8.59617
▁due	-8.59882
▁takes	-8.59987
▁lasts	-8.60816
▁surprised	-8.60953
▁liquid	-8.61739
▁cheap	-8.61754
▁huge	-8.62005
▁makeup	-8.62079
▁air	-8.62128
▁issue	-8.62391
▁fragrance	-8.62524
▁case	-8.63294
▁start	-8.6345
▁non	-8.6382
▁seemed	-8.64092
▁although	-8.64555
▁cheaper	-8.64786
▁fantastic	-8.65384
▁between	-8.65409
▁kept	-8.65441
▁eating	-8.6561
▁area	-8.66258
▁treat	-8.66549
▁believe	-8.66995
▁normal	-8.67058
▁legs	-8.67288
▁excited	-8.67514
▁8	-8.67587
▁snack	-8.68262
▁smelling	-8.68842
▁original	-8.6909
▁bar	-8.6913
▁convenient	-8.69234
▁shea	-8.6934
▁mess	-8.69581
▁:)	-8.69945
▁flavors	-8.7047
▁short	-8.7052
▁within	-8.70907
▁remove	-8.71046
▁finally	-8.71202
▁waste	-8.71438
....	-8.71952
▁return	-8.7213
▁recently	-8.72135
▁please	-8.72204
▁break	-8.72251
▁k	-8.72363
▁gone	-8.72465
▁type	-8.72646
),	-8.72681
▁reason	-8.72713
▁laundry	-8.72747
▁cost	-8.72818
▁simple	-8.73205
▁pad	-8.73722
▁doing	-8.74134
▁effective	-8.74251
▁soon	-8.74333
▁bottles	-8.74405
▁dishes	-8.74426
▁handle	-8.74545
ers	-8.75421
▁bathroom	-8.75484
▁door	-8.75622
▁purchasing	-8.75887
▁replacement	-8.76033
▁oily	-8.76386
▁bowl	-8.76677
▁de	-8.7722
▁rather	-8.77478
▁rest	-8.77606
to	-8.77697
▁c	-8.77741
▁changed	-8.77744
▁pads	-8.78006
▁odor	-8.78713
h	-8.78817
▁gift	-8.79059
▁difficult	-8.79141
▁future	-8.79225
▁fall	-8.79466
▁cute	-8.7954
▁pods	-8.79658
▁dryer	-8.80292
▁huggies	-8.80496
▁colors	-8.8052
▁point	-8.80995
▁experience	-8.81012
▁mom	-8.81306
▁shaving	-8.81339
▁company	-8.81517
▁scale	-8.81844
▁cannot	-8.82045
▁heat	-8.82236
▁100	-8.82391
▁pump	-8.82489
▁etc	-8.82495
▁coconut	-8.82766
▁test	-8.82776
as	-8.82912
▁normally	-8.82932
▁beautiful	-8.82947
▁tasting	-8.8295
▁lasted	-8.83236
▁pro	-8.83278
ic	-8.83563
est	-8.83637
▁chicken	-8.83652
▁container	-8.83961
▁pull	-8.8406
▁medium	-8.84067
▁wrong	-8.84407
▁version	-8.84476
u	-8.85166
▁litter	-8.85253
▁pre	-8.86088
el	-8.86107
▁sent	-8.86126
▁leak	-8.86419
th	-8.86736
▁notice	-8.86748
3	-8.86753
2	-8.87139
▁creamy	-8.87788
▁flavour	-8.87869
▁tasted	-8.87957
▁machine	-8.88023
▁compared	-8.88029
▁larger	-8.88089
▁everyday	-8.88154
no	-8.88166
▁pleasant	-8.88258
▁sticky	-8.88518
▁itself	-8.88521
▁immediately	-8.88756
▁eyes	-8.88868
▁stores	-8.89038
▁given	-8.89132
▁power	-8.89369
▁e	-8.89432
▁market	-8.8948
▁green	-8.89517
▁stop	-8.89701
▁mine	-8.89879
▁7	-8.89967
▁toothpaste	-8.90055
▁twice	-8.90149
▁cool	-8.90314
▁warm	-8.9038
en	-8.90477
▁brown	-8.90597
▁health	-8.90718
▁giving	-8.90755
▁battery	-8.90764
▁wife	-8.90996
▁floor	-8.91126
▁20	-8.91131
▁wearing	-8.91158
▁someone	-8.91251
▁lint	-8.91313
▁30	-8.91394
▁detergent	-8.91569
▁friend	-8.91707
▁blue	-8.91862
▁unfortunately	-8.91865
▁energy	-8.91915
▁touch	-8.92138
▁kitchen	-8.92244
▁organic	-8.92791
▁children	-8.92848
my	-8.92955
▁control	-8.92979
▁stays	-8.93336
▁bars	-8.93541
▁moisturizer	-8.93593
▁child	-8.93835
▁mind	-8.94129
▁worry	-8.94372
▁waterproof	-8.94423
▁stopped	-8.9452
w	-8.94547
▁seat	-8.94597
▁coverage	-8.94697
▁live	-8.94708
▁12	-8.94774
▁saw	-8.94866
▁support	-8.95148
▁shipping	-8.95204
▁wipe	-8.95276
▁mask	-8.95332
▁save	-8.9563
▁secret	-8.95641
▁slightly	-8.95682
▁idea	-8.95755
5	-8.95901
ness	-8.96224
▁wait	-8.96583
▁eye	-8.96605
▁totally	-8.96878
▁gum	-8.96912
▁travel	-8.96958
▁asleep	-8.97278
▁winter	-8.97288
▁smelled	-8.97324
▁outside	-8.97421
▁turn	-8.97976
▁instructions	-8.98184
▁honest	-8.98719
▁blend	-8.9875
▁along	-8.99299
▁stains	-8.99495
▁available	-8.99498
▁hope	-8.99539
▁star	-8.99661
▁!	-8.9972
▁later	-8.99738
▁opened	-8.99808
▁meal	-8.99911
▁collar	-9.00061
▁name	-9.00435
▁local	-9.00613
ch	-9.00997
▁protection	-9.01079
ation	-9.01136
▁feet	-9.01299
▁vanilla	-9.01557
▁residue	-9.01654
▁nicely	-9.01784
▁guess	-9.01953
▁cause	-9.02503
▁putting	-9.0253
1	-9.02891
il	-9.02956
▁summer	-9.03125
▁puppy	-9.0317
▁charge	-9.03291
▁leaks	-9.03882
▁nose	-9.04151
▁drinking	-9.04166
▁pieces	-9.04184
▁bigger	-9.04374
▁front	-9.04995
▁seen	-9.05056
▁co	-9.05127
▁expect	-9.05302
▁swaddlers	-9.05408
▁stomach	-9.05884
▁l	-9.0603
▁sauce	-9.06047
▁piece	-9.0609
▁opinion	-9.062
▁finish	-9.06315
▁move	-9.06433
▁apart	-9.06762
▁solid	-9.06799
▁material	-9.06954
▁durable	-9.06998
▁shiny	-9.07033
ies	-9.07048
▁anymore	-9.07144
▁neck	-9.07219
▁salt	-9.07415
▁choice	-9.07485
▁refreshing	-9.0756
▁style	-9.07591
▁replace	-9.07664
co	-9.07688
but	-9.07721
▁broke	-9.08016
▁pay	-9.0805
▁tide	-9.08142
ar	-9.08272
▁dye	-9.08491
▁lots	-9.08736
▁older	-9.08762
▁hour	-9.08894
▁safe	-9.08934
--	-9.08961
▁gate	-9.09009
▁entire	-9.09157
▁fabric	-9.09319
▁keeping	-9.09355
▁babies	-9.09411
▁pick	-9.09712
▁diet	-9.09779
v	-9.09966
▁clorox	-9.10016
▁p	-9.10097
▁step	-9.10167
▁straight	-9.10196
▁o	-9.10214
▁cleans	-9.10266
▁dried	-9.10404
▁uses	-9.10486
▁four	-9.1054
4	-9.10568
▁likes	-9.10581
▁dont	-9.10592
▁picky	-9.10593
▁rich	-9.10672
▁trimmer	-9.10796
▁toothbrush	-9.10861
▁treats	-9.10962
▁horrible	-9.10974
▁play	-9.11403
▁yes	-9.1141
▁ice	-9.11985
▁bright	-9.1231
▁roller	-9.12445
so	-9.12716
▁similar	-9.12828
▁today	-9.12832
▁satisfied	-9.12879
▁washed	-9.12964
▁pills	-9.12991
ment	-9.13356
ur	-9.13386
up	-9.13431
▁bath	-9.13456
▁silky	-9.13461
▁cleanser	-9.13463
▁shape	-9.13512
li	-9.13565
we	-9.13604
▁simply	-9.13669
▁d	-9.13717
▁moisturizing	-9.14462
▁lasting	-9.14464
less	-9.14703
▁okay	-9.14774
me	-9.14779
▁flat	-9.14866
▁truly	-9.14874
▁option	-9.1521
▁switch	-9.15464
te	-9.15478
▁running	-9.15748
▁cleaner	-9.15754
▁rash	-9.15798
!!!!	-9.1616
▁tight	-9.16192
▁matter	-9.16329
▁throw	-9.1637
▁terrible	-9.16681
at	-9.16684
▁bandages	-9.17181
▁shade	-9.17808
▁fun	-9.17866
▁15	-9.18037
▁w	-9.18126
▁supposed	-9.18137
ion	-9.18303
▁foam	-9.18359
▁fruit	-9.18507
▁cheese	-9.18824
▁reading	-9.19
▁single	-9.19077
▁honestly	-9.19133
▁told	-9.19139
▁stayed	-9.19195
ie	-9.19324
▁girl	-9.19524
▁ready	-9.19881
▁pill	-9.19992
▁stand	-9.20009
▁unit	-9.20027
▁application	-9.20038
▁toilet	-9.20051
▁variety	-9.20082
an	-9.20094
com	-9.20104
0	-9.20131
8	-9.20683
▁advertised	-9.20688
▁decent	-9.20801
▁lip	-9.20805
la	-9.21021
▁sound	-9.21355
▁coming	-9.21402
▁holds	-9.21589
▁influenster	-9.21672
▁hate	-9.21732
▁usual	-9.22221
▁length	-9.22349
▁carry	-9.22582
▁true	-9.22649
▁multiple	-9.22744
▁burn	-9.22881
▁trouble	-9.23126
▁changing	-9.23505
▁leaving	-9.23544
▁rice	-9.23635
▁sun	-9.23744
▁aren	-9.23765
▁toy	-9.24189
ri	-9.24307
▁tiny	-9.24376
▁boxes	-9.24389
▁crate	-9.24424
▁roast	-9.24579
▁customer	-9.24598
▁course	-9.24634
▁lips	-9.24641
ce	-9.2469
▁mascara	-9.24774
▁applied	-9.24932
▁described	-9.25376
▁con	-9.2567
▁system	-9.25892
if	-9.26319
▁fat	-9.26473
▁online	-9.26694
ra	-9.26802
▁supplement	-9.26869
▁alternative	-9.26891
▁pure	-9.27199
▁turned	-9.27307
▁otherwise	-9.27342
is	-9.27476
▁drying	-9.27524
▁noise	-9.27524
▁dish	-9.27664
▁person	-9.27722
▁ended	-9.28077
ma	-9.28288
▁ate	-9.28485
▁delivery	-9.28497
▁handy	-9.2857
▁stuck	-9.28831
not	-9.28943
ish	-9.28988
▁hoping	-9.29065
▁vitamins	-9.29075
nt	-9.29211
▁service	-9.2923
▁ordering	-9.29586
ate	-9.29647
▁mixed	-9.29841
▁plan	-9.29959
be	-9.30183
▁broken	-9.30399
6	-9.30482
am	-9.30579
▁deep	-9.30623
▁breakfast	-9.30781
▁cups	-9.30837
▁sleeping	-9.31227
▁throughout	-9.31453
▁sweat	-9.31568
▁blades	-9.31654
mo	-9.32071
▁walk	-9.32076
▁awful	-9.3222
z	-9.32285
▁yummy	-9.32399
for	-9.3243
▁base	-9.32578
▁vitamin	-9.32697
▁space	-9.32777
ting	-9.32855
ant	-9.32962
nd	-9.33085
▁picture	-9.33172
▁important	-9.33321
▁fur	-9.33339
▁towels	-9.33373
▁switched	-9.33435
▁post	-9.33583
▁polish	-9.33631
▁dishwasher	-9.33671
▁items	-9.33836
ke	-9.33857
▁sit	-9.33942
lo	-9.34118
ine	-9.34312
▁result	-9.34342
▁orange	-9.34372
ity	-9.34406
▁lower	-9.34453
▁lemon	-9.34739
▁fell	-9.34762
▁shaver	-9.34861
▁previous	-9.34878
▁purpose	-9.35121
▁lol	-9.35174
▁roll	-9.3555
ro	-9.35681
▁breath	-9.35703
▁five	-9.36008
us	-9.36501
ive	-9.36504
▁covered	-9.36657
▁mother	-9.36669
▁n	-9.36898
▁crazy	-9.37024
▁special	-9.37075
▁based	-9.3716
▁doctor	-9.37198
▁cap	-9.37204
▁blow	-9.37271
▁softer	-9.37489
▁bring	-9.37524
▁absorbent	-9.37528
▁forward	-9.3786
▁ease	-9.37865
▁become	-9.37918
▁tend	-9.3813
▁man	-9.38205
▁iron	-9.38431
um	-9.38589
▁dove	-9.38841
ter	-9.39009
ne	-9.39013
▁pop	-9.39096
▁gotten	-9.39237
▁--	-9.39264
▁date	-9.39454
▁wake	-9.3958
▁rid	-9.39749
▁tub	-9.39892
▁overpowering	-9.39922
et	-9.40117
▁grey	-9.40139
▁sick	-9.40414
▁tape	-9.40457
▁chew	-9.40586
7	-9.40664
▁comb	-9.40673
▁scrub	-9.40825
▁consistency	-9.40901
de	-9.41055
▁shine	-9.4119
▁moisturized	-9.41255
▁electric	-9.41302
▁ball	-9.41386
▁glass	-9.41414
▁scotch	-9.41765
▁boy	-9.41803
▁near	-9.41957
se	-9.41961
▁loose	-9.41978
▁u	-9.42014
▁addition	-9.42303
▁cooking	-9.42646
▁cook	-9.42674
▁sheets	-9.42852
▁weird	-9.4289
▁fairly	-9.4292
one	-9.42962
▁peanut	-9.43005
▁mild	-9.43016
▁packs	-9.43117
▁calories	-9.43119
▁areas	-9.43147
▁marks	-9.43178
ted	-9.4322
▁spot	-9.43621
▁lid	-9.43707
▁unless	-9.43859
▁lightweight	-9.43912
▁pink	-9.44189
▁opening	-9.44382
▁effect	-9.4444
▁harness	-9.4474
▁lighter	-9.44788
▁meat	-9.44837
▁helpful	-9.4505
▁acne	-9.45123
▁pillow	-9.45199
▁level	-9.45412
▁lost	-9.45437
▁literally	-9.4549
▁none	-9.4557
▁table	-9.456
ty	-9.45788
▁means	-9.45879
▁comfort	-9.45965
▁stock	-9.45968
▁almond	-9.46096
▁nexcare	-9.46167
▁dis	-9.46203
▁washes	-9.46464
ia	-9.46513
▁thinking	-9.46584
▁newborn	-9.46641
▁standard	-9.4666
▁bread	-9.46662
▁wow	-9.4674
10	-9.46783
▁scalp	-9.47105
▁cleaned	-9.47346
▁...	-9.47357
▁complaint	-9.47396
▁constantly	-9.47571
▁hit	-9.47573
▁certainly	-9.4761
▁trust	-9.47627
▁fill	-9.47651
do	-9.47661
▁condition	-9.47851
▁tube	-9.47856
▁number	-9.4791
▁applying	-9.48046
▁affordable	-9.48139
▁mint	-9.48151
▁spend	-9.48224
▁popcorn	-9.48528
▁plenty	-9.48587
which	-9.48814
▁setting	-9.48823
he	-9.48917
▁mo	-9.49357
▁coat	-9.49374
ling	-9.49422
▁lab	-9.49475
▁knew	-9.49629
▁nails	-9.49636
▁foot	-9.49757
▁training	-9.49801
▁st	-9.49825
▁list	-9.49831
▁sort	-9.49965
▁testing	-9.50036
▁brushing	-9.50362
▁leg	-9.50368
▁watch	-9.50377
▁complete	-9.50423
(	-9.5054
▁bulbs	-9.50791
▁corn	-9.5083
▁check	-9.50909
▁dries	-9.50957
▁everywhere	-9.51036
▁taken	-9.5108
▁expecting	-9.51282
▁vet	-9.51335
▁feature	-9.51463
▁blonde	-9.51531
▁pinch	-9.51588
▁remember	-9.51607
▁r	-9.51648
▁app	-9.51701
▁walmart	-9.5174
▁double	-9.51848
lb	-9.52293
na	-9.52425
▁avoid	-9.52452
▁chance	-9.52453
▁blade	-9.52457
▁lbs	-9.52458
▁behind	-9.5248
free	-9.52483
ol	-9.52674
ha	-9.52695
▁prevent	-9.52728
▁stain	-9.52814
▁process	-9.52977
ca	-9.53109
▁relief	-9.53364
age	-9.53403
▁grocery	-9.53412
▁offer	-9.5369
▁sunscreen	-9.53718
▁poor	-9.53746
▁accurate	-9.53782
▁worse	-9.53915
▁razors	-9.54131
▁jar	-9.54232
go	-9.54282
▁spots	-9.54403
▁juice	-9.54508
▁thicker	-9.54573
▁unlike	-9.54599
▁held	-9.54644
▁rinse	-9.54764
▁scents	-9.54828
▁seal	-9.54865
▁improvement	-9.54976
▁curls	-9.55002
▁against	-9.55422
▁heart	-9.55727
ck	-9.55815
▁bitter	-9.55995
▁foods	-9.56156
▁zzzquil	-9.56286
▁outlast	-9.56558
▁minute	-9.56793
▁nearly	-9.56807
▁curly	-9.56968
▁fish	-9.57007
▁anyway	-9.57059
▁barely	-9.57094
▁period	-9.571
▁skeptical	-9.57192
▁pounds	-9.57242
▁removed	-9.57307
ated	-9.57312
▁kitty	-9.57317
▁pleasantly	-9.57325
▁messy	-9.57425
▁chemicals	-9.57671
▁delivered	-9.5768
▁50	-9.57828
▁irritation	-9.57896
▁didnt	-9.58135
▁lunch	-9.58168
▁range	-9.58289
▁strength	-9.58379
▁sides	-9.5838
▁personally	-9.58439
▁pound	-9.58608
▁onto	-9.5863
▁middle	-9.58659
▁priced	-9.587
▁tough	-9.58767
▁purposes	-9.58773
▁irritate	-9.58911
ul	-9.59144
▁trash	-9.59147
▁higher	-9.59177
▁lb	-9.59296
▁beat	-9.59481
▁oz	-9.59485
▁routine	-9.59493
they	-9.59733
▁dust	-9.59798
▁honey	-9.59849
▁born	-9.59871
▁towel	-9.59923
▁regularly	-9.59953
▁negative	-9.60155
▁worst	-9.6016
▁candy	-9.60249
like	-9.60309
▁receive	-9.60321
▁anywhere	-9.60322
▁adding	-9.60438
▁hurt	-9.60444
un	-9.60547
line	-9.60744
▁gluten	-9.6075
po	-9.60942
▁careful	-9.61131
▁pricey	-9.6115
▁returned	-9.61168
▁load	-9.61249
▁call	-9.61352
▁opinions	-9.61357
▁shake	-9.61414
▁combination	-9.61908
▁kit	-9.62008
▁la	-9.62027
▁overnight	-9.62305
▁wide	-9.62316
▁active	-9.62449
▁feed	-9.62559
▁total	-9.62799
ating	-9.62816
▁sold	-9.62879
▁properly	-9.63018
▁stretch	-9.63209
▁spread	-9.63257
▁sink	-9.63501
▁refreshed	-9.63523
▁kid	-9.63534
▁exchange	-9.63602
▁chips	-9.63719
▁tree	-9.63764
▁dirty	-9.63866
▁drinks	-9.63948
▁harsh	-9.64049
▁dr	-9.64064
ent	-9.64091
▁particular	-9.64232
▁across	-9.6426
▁provides	-9.64306
▁provide	-9.64338
▁finding	-9.64419
▁fair	-9.64469
▁hasn	-9.64493
▁wetness	-9.64561
▁fountain	-9.64649
▁bother	-9.64734
▁effects	-9.64811
▁cake	-9.64867
▁cord	-9.64927
▁directions	-9.64967
▁label	-9.65042
▁install	-9.65067
▁toddler	-9.6507
▁pair	-9.65435
▁moist	-9.65444
▁24	-9.65478
▁gas	-9.65531
▁clothing	-9.65595
▁christmas	-9.65605
out	-9.65633
▁bulb	-9.65735
ba	-9.65795
▁except	-9.65923
▁office	-9.66013
▁dinner	-9.66146
▁filling	-9.66219
▁consider	-9.66318
▁yellow	-9.6657
▁show	-9.66617
▁ground	-9.66648
ci	-9.66728
▁model	-9.66853
▁tear	-9.66868
mp	-9.66996
▁worried	-9.67413
▁gold	-9.67417
▁facial	-9.67578
▁shop	-9.67634
▁fix	-9.67828
▁device	-9.67936
▁oh	-9.68098
▁follow	-9.68124
▁useful	-9.68227
▁ta	-9.68243
▁metal	-9.68387
▁mean	-9.68397
▁soup	-9.68533
iness	-9.68658
▁leash	-9.68756
▁artificial	-9.68757
ry	-9.68838
▁trip	-9.68888
▁mostly	-9.68914
ier	-9.68917
▁seconds	-9.68932
▁secure	-9.68977
▁sitting	-9.69269
▁bandage	-9.69299
▁mat	-9.69397
▁types	-9.69407
per	-9.69524
▁age	-9.69579
ful	-9.69646
ped	-9.69715
▁tone	-9.69841
▁ask	-9.69918
▁nail	-9.69985
▁grip	-9.70071
▁sized	-9.70129
▁aid	-9.70136
ping	-9.70204
▁tip	-9.70206
▁healthier	-9.70309
tic	-9.7033
ee	-9.70385
▁ran	-9.70421
▁forever	-9.70425
▁bonus	-9.70551
▁volume	-9.70617
pa	-9.70657
▁figured	-9.70824
▁cuts	-9.70886
▁rough	-9.70931
▁m	-9.70987
▁reasonable	-9.71082
▁recipe	-9.71105
▁match	-9.71249
▁understand	-9.71392
▁count	-9.71405
▁feeding	-9.71414
▁dirt	-9.71432
▁removing	-9.71816
▁cookies	-9.7189
▁chair	-9.71891
vi	-9.71926
▁happened	-9.72063
▁sale	-9.7214
▁complimentary	-9.72274
▁alot	-9.72485
▁x	-9.72576
▁po	-9.72602
▁band	-9.72627
▁positive	-9.72652
▁choose	-9.72711
▁description	-9.72745
▁stronger	-9.728
▁starting	-9.73123
▁ends	-9.73184
pe	-9.7338
▁curl	-9.73475
▁febreze	-9.73764
▁faster	-9.73846
▁suggest	-9.73871
▁lather	-9.73884
▁paid	-9.7398
▁sharp	-9.74017
▁reach	-9.74047
▁eczema	-9.74057
▁actual	-9.74076
▁boost	-9.74135
▁pressure	-9.74212
▁included	-9.74363
▁pee	-9.74441
▁matte	-9.74762
▁alone	-9.74771
▁loud	-9.74804
▁possible	-9.74824
▁trick	-9.7506
▁aroma	-9.75309
▁replaced	-9.75488
▁rub	-9.75519
▁afterwards	-9.75578
▁walking	-9.7566
▁brought	-9.75673
▁beard	-9.75739
▁chemical	-9.7575
▁scoop	-9.7579
▁living	-9.75908
▁tired	-9.75991
▁fancy	-9.76047
▁complaints	-9.76063
▁carpet	-9.76158
▁1/2	-9.76182
▁workout	-9.76321
▁grab	-9.76429
▁pot	-9.76811
▁allows	-9.7683
▁toys	-9.76856
▁covers	-9.76929
▁damaged	-9.76975
im	-9.7699
▁yourself	-9.77068
▁upset	-9.77245
ge	-9.77313
▁heard	-9.77446
▁main	-9.7745
▁sa	-9.77494
gra	-9.77565
▁slight	-9.7761
sh	-9.77762
▁school	-9.77973
▁round	-9.78002
▁solution	-9.78083
▁fully	-9.78121
▁indicator	-9.78163
▁knee	-9.78525
▁apple	-9.78726
▁target	-9.78826
▁cloth	-9.78833
▁hospital	-9.78875
▁weak	-9.78925
▁uncomfortable	-9.79011
▁pan	-9.79085
▁purse	-9.79164
▁en	-9.79281
▁ro	-9.79331
▁allergies	-9.79438
▁disappointing	-9.79545
▁pizza	-9.79617
▁zero	-9.79636
▁beans	-9.79689
▁blood	-9.7976
▁falling	-9.79768
▁wood	-9.79806
▁options	-9.79931
▁research	-9.79937
▁anti	-9.80011
▁firm	-9.80233
▁flavored	-9.80263
▁arm	-9.80334
▁third	-9.80416
▁helping	-9.80433
▁gray	-9.80701
▁whatever	-9.80763
▁seriously	-9.80925
ad	-9.80994
you	-9.81008
▁self	-9.81137
ist	-9.81206
▁holding	-9.81279
▁leaking	-9.81311
▁lose	-9.81491
▁improved	-9.81689
▁spice	-9.8171
▁counter	-9.81751
▁benefits	-9.81877
▁damage	-9.81892
oo	-9.82253
▁wax	-9.82286
▁appreciate	-9.8232
brite	-9.82389
▁lo	-9.82436
▁slow	-9.82467
▁figure	-9.82685
00	-9.82705
▁wonders	-9.82712
▁block	-9.82853
▁drop	-9.82936
▁lu	-9.8297
▁medicine	-9.83021
▁silk	-9.83052
▁weather	-9.8331
▁pepper	-9.8335
▁pasta	-9.83358
▁asked	-9.83375
▁subtle	-9.83446
▁plain	-9.8347
▁packaged	-9.83514
▁noticeable	-9.8357
&	-9.8366
▁ensure	-9.83706
▁rip	-9.83747
▁mail	-9.83759
▁ingredient	-9.84031
▁tool	-9.84038
!)	-9.84067
▁itchy	-9.84095
▁fingers	-9.8414
▁bulk	-9.84176
▁correct	-9.84395
▁brushes	-9.84408
▁seller	-9.84415
▁including	-9.84429
▁pod	-9.84547
▁rate	-9.84557
▁storage	-9.84718
▁whether	-9.8475
▁push	-9.85158
▁vi	-9.85303
▁pup	-9.85306
▁sponge	-9.85364
▁di	-9.85404
▁bowls	-9.85589
.....	-9.85873
▁spent	-9.85927
▁protect	-9.85941
▁send	-9.85973
▁caffeine	-9.86026
▁knowing	-9.86109
▁button	-9.86111
▁build	-9.86137
▁g	-9.86162
▁shoes	-9.8627
▁imagine	-9.86272
▁world	-9.86318
▁flow	-9.86404
▁absorb	-9.86456
▁frizz	-9.86477
ous	-9.8653
▁gillette	-9.86531
▁leaked	-9.86542
ster	-9.86616
▁mouthwash	-9.86704
▁tooth	-9.86729
▁wall	-9.86746
▁strip	-9.86918
▁40	-9.86921
▁furniture	-9.86931
▁sl	-9.8695
▁adjust	-9.87136
▁arms	-9.87141
▁boys	-9.87208
ring	-9.8731
▁filter	-9.87331
▁lashes	-9.87341
▁saying	-9.87348
▁contains	-9.87388
ni	-9.87451
▁rubber	-9.87454
▁sister	-9.87524
▁runs	-9.87607
▁nasty	-9.87615
▁baking	-9.87677
▁hydrated	-9.87772
▁lay	-9.87772
▁instant	-9.87788
▁surprise	-9.87937
▁win	-9.87976
▁gain	-9.8799
▁potty	-9.8813
▁sheet	-9.88175
▁acid	-9.88225
▁wrap	-9.88227
▁currently	-9.88281
▁hang	-9.88492
▁ear	-9.88523
▁aftertaste	-9.88794
▁six	-9.88864
▁user	-9.8893
▁slip	-9.89151
▁compare	-9.89268
▁sizes	-9.89426
▁changes	-9.89431
▁f	-9.89436
▁ca	-9.89468
▁upon	-9.89613
▁perfume	-9.89646
und	-9.89665
▁beds	-9.89736
▁previously	-9.89776
▁empty	-9.89853
▁strips	-9.89868
▁nights	-9.89889
▁bold	-9.89896
ally	-9.8991
▁contain	-9.8992
ian	-9.89985
▁pets	-9.89999
▁doesnt	-9.90049
▁rating	-9.90114
▁provided	-9.90255
▁lipstick	-9.90277
▁balm	-9.90307
▁trim	-9.90318
▁gravy	-9.90334
▁nuts	-9.906
▁crunchy	-9.90654
▁gross	-9.90667
▁caused	-9.90691
▁note	-9.90707
▁mention	-9.90831
▁comfy	-9.90903
▁current	-9.90966
▁darker	-9.91044
▁pulling	-9.91125
▁update	-9.91193
▁cereal	-9.91209
▁sc	-9.91308
ph	-9.9133
▁bo	-9.91348
▁called	-9.914
▁somewhat	-9.91466
▁smoothly	-9.91555
▁allergic	-9.91572
▁household	-9.91644
▁scented	-9.91753
▁guy	-9.91784
▁ha	-9.91806
▁fiber	-9.91806
▁assemble	-9.91883
▁cascade	-9.91901
▁purina	-9.91979
▁salad	-9.91982
▁poop	-9.91992
▁cutting	-9.92025
ap	-9.92034
▁wants	-9.92051
id	-9.92052
min	-9.92074
▁parts	-9.92094
▁steps	-9.92096
va	-9.92186
▁men	-9.92284
▁reaction	-9.92472
ex	-9.92532
ho	-9.92715
▁considering	-9.92736
▁16	-9.92749
▁refill	-9.92784
▁expectations	-9.92797
▁couch	-9.92815
▁microwave	-9.92881
▁serving	-9.93005
▁convenience	-9.93038
▁starbucks	-9.93105
▁gums	-9.93296
▁surface	-9.93388
▁absorbs	-9.93526
▁brilliant	-9.93721
▁lift	-9.93909
▁rolls	-9.94048
▁saved	-9.94412
▁seeing	-9.94424
▁sore	-9.94467
▁forget	-9.94569
▁dressing	-9.94572
▁women	-9.94627
▁hint	-9.9466
▁designed	-9.94693
▁turns	-9.94789
▁happen	-9.9492
▁finished	-9.94941
▁quiet	-9.94946
▁allow	-9.95039
▁oral	-9.95133
rd	-9.95157
▁packet	-9.95179
▁heads	-9.95235
▁threw	-9.95271
▁temperature	-9.95292
▁shipped	-9.95311
▁average	-9.95379
▁flimsy	-9.95401
▁floors	-9.95472
▁agree	-9.95506
▁multi	-9.95637
▁11	-9.9564
▁became	-9.95656
side	-9.95737
▁bounty	-9.95743
▁certain	-9.95806
▁woke	-9.95829
▁amazed	-9.95926
▁sp	-9.95949
▁suffer	-9.95958
ber	-9.96145
▁drops	-9.96189
just	-9.9639
▁bleach	-9.96449
all	-9.96457
▁hole	-9.96738
▁y	-9.96759
▁basically	-9.96781
▁purple	-9.96783
▁moving	-9.96797
▁busy	-9.96858
▁mar	-9.9689
▁leaf	-9.97161
les	-9.97221
op	-9.9728
▁insert	-9.97281
▁cushion	-9.97302
▁nor	-9.97302
▁instantly	-9.97422
▁fabulous	-9.97435
▁bunch	-9.97495
▁18	-9.97567
▁grain	-9.97597
▁kick	-9.97621
da	-9.9763
▁banana	-9.97651
▁season	-9.97666
▁scratch	-9.97805
▁batch	-9.97923
▁14	-9.97925
▁liner	-9.98005
▁swallow	-9.98064
▁lines	-9.98076
▁naturally	-9.98143
▁early	-9.98182
▁washer	-9.98208
▁miss	-9.98242
▁shopping	-9.98249
▁alcohol	-9.98412
ance	-9.98464
▁ten	-9.98486
ct	-9.98526
▁track	-9.98551
▁tampons	-9.98595
▁favourite	-9.98659
▁lavender	-9.98787
oz	-9.98804
▁missing	-9.98814
▁treatment	-9.98855
▁separate	-9.98962
▁awhile	-9.98967
▁snug	-9.99027
os	-9.9904
▁major	-9.99072
▁syrup	-9.99194
▁french	-9.993
50	-9.99392
▁stiff	-9.99474
use	-9.9967
▁perhaps	-9.99777
▁salon	-9.99919
lbs	-9.99919
▁picked	-9.99957
▁shot	-10.0002
▁realize	-10.0007
▁personal	-10.0032
▁above	-10.0034
▁hear	-10.0036
▁compact	-10.0044
▁cinnamon	-10.0045
▁shelf	-10.0048
▁applicator	-10.0063
▁clippers	-10.007
▁glow	-10.0081
▁60	-10.0105
▁parent	-10.0106
▁function	-10.0107
▁lights	-10.0129
▁yogurt	-10.0135
▁h	-10.0145
▁evening	-10.0156
▁likely	-10.0159
▁compliments	-10.0169
▁gym	-10.0172
▁young	-10.0182
▁bristles	-10.0193
▁pocket	-10.0197
ir	-10.0201
▁dose	-10.0207
▁window	-10.0215
▁crest	-10.0225
lu	-10.0231
▁powerful	-10.0235
▁switching	-10.0243
▁carrier	-10.0262
▁basis	-10.0263
▁disposable	-10.0263
▁realized	-10.0268
▁phone	-10.0268
red	-10.0271
▁ho	-10.0274
▁despite	-10.0286
▁bulky	-10.0304
▁odd	-10.0304
▁annoying	-10.0326
▁holes	-10.0334
▁fl	-10.0346
▁finger	-10.0346
▁bite	-10.0355
▁spicy	-10.0356
▁began	-10.0356
▁supplements	-10.0357
▁scratching	-10.0361
▁cooked	-10.0368
▁write	-10.037
▁confident	-10.0377
▁incredibly	-10.038
▁typically	-10.0387
▁portion	-10.0401
▁plug	-10.0402
▁prior	-10.0417
▁tested	-10.0435
▁surgery	-10.0443
▁oils	-10.0451
▁snap	-10.0451
▁dentist	-10.0455
▁25	-10.0457
▁salty	-10.0461
▁grow	-10.0471
▁clip	-10.0476
▁layer	-10.0479
▁si	-10.0489
▁frizzy	-10.049
▁lack	-10.0505
▁built	-10.0518
▁serum	-10.0521
▁burning	-10.0551
j	-10.0563
▁yum	-10.0566
▁impossible	-10.0568
▁def	-10.0598
old	-10.0602
rs	-10.063
▁weren	-10.0633
bs	-10.0646
▁plates	-10.0653
▁discovered	-10.0657
▁roots	-10.0664
▁overly	-10.0672
ned	-10.0674
▁smoother	-10.0681
▁mistake	-10.0684
man	-10.0688
20	-10.0702
▁attached	-10.0707
▁glasses	-10.0715
she	-10.0722
▁pores	-10.0723
▁sounds	-10.0736
bo	-10.0736
▁ginger	-10.0755
▁pine	-10.0755
▁girls	-10.0758
▁spring	-10.0766
ea	-10.0767
our	-10.0774
▁returning	-10.0789
▁kitten	-10.0792
▁absolute	-10.08
▁miracle	-10.0805
time	-10.081
▁snacks	-10.0813
▁filled	-10.082
▁ranch	-10.0824
▁sense	-10.0824
▁strap	-10.0831
▁remover	-10.0838
▁effort	-10.0842
▁known	-10.0842
▁refund	-10.0845
▁playing	-10.0847
▁velcro	-10.0853
▁moved	-10.0862
▁messes	-10.0868
▁party	-10.0869
▁overwhelming	-10.0872
▁13	-10.0884
▁meals	-10.0885
▁various	-10.0898
▁supply	-10.0912
▁cotton	-10.0915
▁squeeze	-10.092
▁downside	-10.0924
▁ma	-10.097
▁whenever	-10.0971
ud	-10.0972
▁olive	-10.0993
▁admit	-10.0996
▁aveeno	-10.1008
▁nappies	-10.101
▁concerned	-10.1012
▁pants	-10.1017
▁crisp	-10.1023
▁afraid	-10.1045
▁generation	-10.1057
end	-10.1057
▁eyeliner	-10.1057
▁pass	-10.106
▁professional	-10.1067
▁tin	-10.1068
▁blends	-10.1078
▁sorry	-10.1082
▁holder	-10.1086
▁smart	-10.1088
▁gloves	-10.1089
▁disinfecting	-10.109
▁adult	-10.1094
▁traditional	-10.1116
der	-10.112
▁manufacturer	-10.1122
▁balance	-10.1123
tro	-10.114
pping	-10.1142
▁brew	-10.1155
pi	-10.1164
kin	-10.1184
▁tablets	-10.1205
▁brewed	-10.1207
ple	-10.1211
▁reviewers	-10.1221
led	-10.1221
▁max	-10.1231
▁photo	-10.1255
off	-10.1255
▁nighttime	-10.1257
▁wonder	-10.1263
▁:(	-10.1263
▁fridge	-10.1276
▁slept	-10.1284
▁experienced	-10.1284
▁mu	-10.1295
▁places	-10.1298
▁daughters	-10.1302
▁useless	-10.1303
▁mini	-10.1304
▁followed	-10.131
▁height	-10.1311
ff	-10.1321
▁charmin	-10.1324
very	-10.1333
cu	-10.1336
▁sticks	-10.1349
▁eater	-10.1361
▁capsules	-10.1369
▁strawberry	-10.1376
▁recieved	-10.1378
▁parents	-10.138
▁panel	-10.1404
▁select	-10.1411
▁z	-10.1417
▁happier	-10.1429
▁grease	-10.1432
▁vacuum	-10.1434
▁particularly	-10.1435
▁general	-10.1438
▁hardly	-10.1443
ble	-10.1444
▁stated	-10.1453
▁rug	-10.1455
▁packets	-10.1457
▁primer	-10.1469
ary	-10.1473
▁tan	-10.1483
▁frozen	-10.149
▁obviously	-10.149
ep	-10.1497
▁screw	-10.1499
▁el	-10.15
▁generally	-10.1526
▁form	-10.1531
▁chose	-10.1532
▁pulled	-10.1539
▁essential	-10.1539
hi	-10.1549
▁additional	-10.1553
▁jump	-10.1557
▁leakage	-10.1559
▁reliable	-10.156
▁calm	-10.1565
▁creamer	-10.1566
▁breast	-10.1566
▁traveling	-10.1572
py	-10.1573
▁wore	-10.1581
▁reduce	-10.1585
▁painful	-10.1603
▁tissue	-10.1611
▁golden	-10.1611
▁loving	-10.1611
▁basic	-10.1617
▁moment	-10.1617
▁slide	-10.1619
ged	-10.162
▁maintain	-10.163
▁vegan	-10.1637
day	-10.1646
▁claims	-10.1656
▁inches	-10.1668
wa	-10.167
▁doubt	-10.1671
▁placed	-10.1673
▁wont	-10.1678
▁odors	-10.1682
▁led	-10.1698
▁appears	-10.1698
▁toast	-10.1704
▁sad	-10.1707
▁share	-10.1709
▁edge	-10.1714
▁pour	-10.1716
▁shirt	-10.1719
▁mop	-10.1721
▁individual	-10.1727
▁website	-10.174
▁feast	-10.174
▁packed	-10.1744
▁frequently	-10.1747
▁program	-10.1759
▁position	-10.1761
▁shows	-10.1764
▁suggested	-10.1768
med	-10.1772
▁adds	-10.178
▁massage	-10.1781
▁beautifully	-10.1782
▁eats	-10.1798
▁!!	-10.1799
▁hopefully	-10.1812
▁spit	-10.1814
▁mixes	-10.1816
ga	-10.1827
▁strange	-10.1828
▁wonderfully	-10.1832
▁stroller	-10.1833
▁subscribe	-10.1834
▁soothing	-10.1835
▁contact	-10.1837
▁decaf	-10.1841
▁gorgeous	-10.1843
▁lock	-10.1847
▁nutrition	-10.1848
▁softness	-10.1852
pro	-10.1864
▁flour	-10.1869
▁waiting	-10.1877
▁dead	-10.188
▁su	-10.1885
▁eventually	-10.1891
▁owned	-10.1899
▁charger	-10.192
▁kinda	-10.1929
30	-10.193
▁hooked	-10.1931
▁al	-10.1936
▁sell	-10.194
▁plant	-10.1948
▁initially	-10.195
▁beyond	-10.1952
tion	-10.1972
▁inexpensive	-10.1975
▁oatmeal	-10.1984
▁stairs	-10.199
▁exercise	-10.1991
▁whitening	-10.1998
▁thrilled	-10.1999
▁saving	-10.2
▁stress	-10.2005
▁peach	-10.2014
▁cant	-10.2039
▁rollers	-10.204
cup	-10.2042
▁caramel	-10.2044
▁thinner	-10.2049
▁mist	-10.2068
▁bin	-10.2069
▁necessary	-10.2073
▁features	-10.2078
▁content	-10.208
▁wand	-10.2097
▁late	-10.2112
light	-10.2116
▁beauty	-10.2118
▁du	-10.212
ver	-10.2143
▁staple	-10.2145
▁speed	-10.2146
▁book	-10.2153
ence	-10.2158
▁pa	-10.2163
▁soda	-10.2171
▁friendly	-10.2174
▁source	-10.2177
son	-10.2183
▁da	-10.2189
▁raw	-10.2191
ay	-10.2192
▁worn	-10.2193
▁tall	-10.2196
▁saver	-10.2199
▁hairs	-10.2206
▁flavorful	-10.221
ut	-10.221
▁ex	-10.2224
▁benefit	-10.2226
▁exact	-10.2234
▁garbage	-10.2251
ky	-10.2251
▁colored	-10.2251
▁concern	-10.2264
aid	-10.2271
▁section	-10.2274
▁cardboard	-10.2276
▁chest	-10.2279
▁dairy	-10.2286
▁learned	-10.229
▁chewing	-10.2309
▁pe	-10.2326
▁orbit	-10.2326
▁zipper	-10.2329
king	-10.2337
fe	-10.2337
ning	-10.2344
▁fitbit	-10.235
▁country	-10.2354
▁irritated	-10.2355
▁infant	-10.2364
cent	-10.237
▁na	-10.2378
▁measure	-10.2384
▁mentioned	-10.2388
▁cleansing	-10.2395
▁nap	-10.2412
▁48	-10.2438
▁growing	-10.2443
▁dental	-10.2447
▁edges	-10.2449
tru	-10.245
cl	-10.2458
▁muscle	-10.2466
▁reapply	-10.248
▁beef	-10.2483
▁tray	-10.2488
even	-10.2494
ac	-10.2494
▁containers	-10.2507
▁starts	-10.2509
ving	-10.2513
ze	-10.2513
▁junk	-10.2537
▁press	-10.2539
▁twist	-10.2553
▁require	-10.2561
great	-10.2561
▁cycle	-10.2565
▁quit	-10.257
▁magic	-10.2572
▁spf	-10.2574
▁wrist	-10.2575
!!!!!	-10.2582
▁absorbency	-10.2583
cons	-10.2585
love	-10.2606
▁saves	-10.2608
▁dyes	-10.2632
▁cons	-10.2633
▁inch	-10.2643
▁tender	-10.2646
▁mid	-10.2665
▁chewy	-10.2678
▁wound	-10.2679
▁luck	-10.2693
▁substitute	-10.2694
▁keurig	-10.2699
▁heating	-10.2719
▁clearly	-10.2724
fa	-10.273
▁german	-10.2732
▁freshness	-10.2733
▁garlic	-10.2734
▁seasoning	-10.2736
▁levels	-10.2738
▁peel	-10.2751
▁shades	-10.2756
▁ba	-10.2757
▁teas	-10.2782
▁fault	-10.2797
▁nut	-10.2808
▁soy	-10.2809
▁carrying	-10.2817
▁pie	-10.2828
let	-10.2831
▁rec	-10.2868
di	-10.2869
▁delicate	-10.287
▁tends	-10.287
▁dull	-10.2872
▁occasionally	-10.2883
▁sealed	-10.2898
▁woman	-10.2916
▁exfoliating	-10.2923
▁sour	-10.2934
▁consistent	-10.2934
▁meant	-10.2937
▁rose	-10.2944
▁walker	-10.2948
▁melt	-10.2951
ding	-10.2955
▁visit	-10.2957
▁harder	-10.2962
▁improve	-10.2962
▁breaking	-10.2964
▁loss	-10.2979
▁cookie	-10.2981
▁thru	-10.3018
▁ra	-10.3041
▁film	-10.3042
pack	-10.3053
▁regret	-10.3059
▁split	-10.3059
▁bedroom	-10.3061
▁fake	-10.3062
▁manual	-10.3063
some	-10.3076
▁birthday	-10.3076
▁deodorants	-10.3082
▁fold	-10.3089
▁smoothies	-10.3093
▁bi	-10.3098
▁nappy	-10.3106
▁dip	-10.3108
▁mi	-10.3111
▁themselves	-10.3114
▁minimal	-10.3115
▁th	-10.3124
▁question	-10.3124
▁younger	-10.3127
▁game	-10.3127
▁manage	-10.3128
that	-10.3134
▁brace	-10.3138
▁guard	-10.3144
▁rarely	-10.3169
▁dispenser	-10.3181
▁adjustable	-10.3181
▁kinds	-10.3186
▁staying	-10.3186
fi	-10.3197
▁ideal	-10.3204
▁fi	-10.3206
by	-10.3224
▁v	-10.3225
▁ver	-10.323
▁minty	-10.324
▁offered	-10.3267
▁yesterday	-10.3268
▁temp	-10.3272
▁receiving	-10.3273
▁wrapped	-10.3274
▁causing	-10.3278
▁latch	-10.3278
▁2-3	-10.3285
▁interested	-10.3287
▁incredible	-10.3287
▁bland	-10.3289
▁present	-10.3299
▁min	-10.3299
▁..	-10.33
▁therefore	-10.3308
▁thickness	-10.331
▁unpleasant	-10.3313
▁biggest	-10.3316
▁safety	-10.3318
▁eaten	-10.3321
▁gr	-10.3334
▁tummy	-10.3335
vo	-10.3355
▁motor	-10.3357
▁sub	-10.3357
▁originally	-10.336
uff	-10.3372
bu	-10.3394
ig	-10.3398
▁catcher	-10.3402
ak	-10.3405
▁begin	-10.3407
▁recipes	-10.3409
▁mark	-10.3409
▁ne	-10.3414
▁print	-10.342
▁hesitant	-10.3427
▁attention	-10.3434
sol	-10.344
▁prone	-10.3444
▁shoulder	-10.3445
▁paste	-10.345
12	-10.3451
▁hoped	-10.3453
▁reduced	-10.3461
▁medication	-10.3463
▁ton	-10.3464
ger	-10.3467
▁oven	-10.3469
▁cr	-10.348
▁claim	-10.3482
▁intense	-10.3484
▁em	-10.3502
▁classic	-10.3502
▁creams	-10.3506
▁li	-10.3506
gen	-10.3523
▁removes	-10.3531
▁lamp	-10.355
▁severe	-10.3554
▁reasonably	-10.3564
▁brighter	-10.357
▁spa	-10.3571
▁opportunity	-10.3576
▁ripped	-10.3579
ther	-10.3579
▁sticking	-10.3586
▁complain	-10.3589
▁allergy	-10.359
▁proof	-10.3602
▁loads	-10.3613
▁performance	-10.3623
▁egg	-10.3623
▁redness	-10.3627
▁display	-10.3632
▁tie	-10.3633
▁concealer	-10.3634
▁kill	-10.3635
▁shout	-10.3635
▁intended	-10.3639
▁suppose	-10.365
▁appear	-10.3661
▁wrinkles	-10.3672
▁typical	-10.3679
▁closed	-10.3684
▁balls	-10.3686
▁bzzagent	-10.3692
▁samples	-10.37
▁wanting	-10.3703
▁prime	-10.3707
▁socks	-10.3724
▁sadly	-10.3727
▁j	-10.3734
▁canned	-10.3735
▁shame	-10.3735
▁settings	-10.3736
▁straps	-10.3739
▁ni	-10.374
▁crunch	-10.3749
▁root	-10.3759
▁ankle	-10.3761
▁further	-10.3762
pl	-10.3762
▁trial	-10.3772
▁liners	-10.3775
▁comment	-10.3777
▁attach	-10.3781
▁hated	-10.3784
ub	-10.3786
▁ears	-10.3789
▁packages	-10.3797
▁sleeps	-10.3816
▁lathers	-10.3816
▁drip	-10.3818
▁comfortably	-10.3829
▁screen	-10.3834
▁dissolve	-10.3841
▁cal	-10.3844
▁rashes	-10.385
▁paying	-10.3851
▁hide	-10.3852
▁aware	-10.3855
▁required	-10.3857
▁stale	-10.387
tain	-10.3896
after	-10.3897
▁/	-10.3906
▁drain	-10.3908
▁hydro	-10.3922
▁sta	-10.393
▁click	-10.3931
port	-10.3941
▁clinical	-10.3941
▁cocoa	-10.3943
▁rock	-10.3945
▁via	-10.3948
▁thoroughly	-10.3949
▁iced	-10.395
▁sm	-10.3951
can	-10.3952
con	-10.3952
tter	-10.3955
▁seeds	-10.3956
▁comp	-10.3964
▁bear	-10.3967
▁increase	-10.3969
▁lotions	-10.397
with	-10.3983
▁frame	-10.3984
▁weigh	-10.3985
▁boyfriend	-10.3988
▁directly	-10.3991
sp	-10.4002
▁breeze	-10.4003
▁beginning	-10.4005
clean	-10.4015
▁superior	-10.4017
▁desk	-10.402
▁quantity	-10.4021
▁cabinet	-10.4034
▁ability	-10.4051
▁nature	-10.4055
▁shepherd	-10.4062
▁fail	-10.4065
▁rain	-10.4082
▁hassle	-10.4082
▁speak	-10.4093
▁glue	-10.4095
▁affect	-10.4096
▁watery	-10.4109
▁stink	-10.411
▁enjoys	-10.4113
▁happens	-10.4116
▁clairol	-10.4117
▁0	-10.4118
▁manageable	-10.4127
▁pictures	-10.413
▁espresso	-10.4132
▁afternoon	-10.4132
▁listerine	-10.4151
▁flexible	-10.4163
▁surprisingly	-10.4175
▁walks	-10.4179
▁shut	-10.4181
▁cracked	-10.4184
▁penny	-10.4186
▁following	-10.4194
▁rescue	-10.4206
▁sea	-10.4208
▁:	-10.4208
▁yard	-10.4213
▁nipple	-10.4217
ki	-10.4222
▁kitties	-10.4224
▁chi	-10.4234
▁struggle	-10.424
▁urine	-10.4242
▁ga	-10.4247
▁correctly	-10.4247
▁attractive	-10.4254
▁till	-10.4254
ey	-10.4262
▁serve	-10.4263
update	-10.4264
▁guys	-10.4272
ward	-10.4278
▁fe	-10.4282
▁sleek	-10.4286
▁80	-10.4291
▁hip	-10.4298
▁protected	-10.4299
▁ring	-10.4302
▁wi	-10.4315
▁chip	-10.4315
▁amazingly	-10.4325
work	-10.4325
▁release	-10.4326
▁cane	-10.4329
dry	-10.4338
▁reminds	-10.4353
▁paint	-10.4356
▁disgusting	-10.4356
▁pattern	-10.4357
▁unscented	-10.4357
ened	-10.4362
▁business	-10.4362
ab	-10.4363
▁charging	-10.4363
▁digestive	-10.4364
em	-10.4381
▁depending	-10.4381
▁supermarket	-10.4382
▁gummy	-10.4386
ens	-10.4389
▁freezer	-10.4395
▁arthritis	-10.44
▁fairy	-10.4404
▁cherry	-10.4409
▁below	-10.4412
dy	-10.4417
che	-10.4429
▁tabs	-10.4433
▁duty	-10.4442
▁cha	-10.4443
▁accident	-10.4443
▁human	-10.4444
▁pregnant	-10.4451
▁seventh	-10.4451
ect	-10.4453
▁pool	-10.4454
▁symptoms	-10.4457
▁clumps	-10.446
way	-10.4465
▁absorbed	-10.4466
well	-10.4467
▁knock	-10.4468
▁ages	-10.4475
ner	-10.4476
▁mold	-10.4494
tra	-10.4497
▁sweetness	-10.4506
▁unique	-10.4512
wash	-10.452
zz	-10.4522
now	-10.4527
▁chews	-10.4533
000	-10.4544
▁throwing	-10.455
▁beach	-10.4557
▁preferred	-10.4559
▁mixing	-10.4563
cr	-10.4575
▁proper	-10.4588
▁unable	-10.4602
▁caught	-10.4605
▁drive	-10.4607
ging	-10.461
▁sha	-10.4616
▁consistently	-10.4624
▁germs	-10.463
ball	-10.4635
▁animal	-10.4641
▁animals	-10.4643
▁dad	-10.465
▁weekend	-10.4652
▁crust	-10.4668
long	-10.4677
▁damp	-10.4683
▁sensation	-10.4688
▁thus	-10.4689
▁enter	-10.469
▁extract	-10.4697
▁eggs	-10.4699
......	-10.4701
ft	-10.4702
▁sweetener	-10.4703
▁movement	-10.4711
▁se	-10.4716
cing	-10.4716
▁pockets	-10.4722
▁chihuahua	-10.4723
cups	-10.4724
▁comparison	-10.4725
▁fussy	-10.473
▁disinfect	-10.4732
▁antiperspirant	-10.4735
▁card	-10.4743
▁bumps	-10.4744
ized	-10.4747
when	-10.4759
▁video	-10.476
▁cetaphil	-10.4761
▁pit	-10.4765
▁vacation	-10.4769
▁maker	-10.4771
▁crack	-10.4779
▁steel	-10.4786
▁allowed	-10.4787
rr	-10.479
▁needing	-10.4791
▁create	-10.4798
▁site	-10.4801
▁!!!	-10.481
▁burned	-10.4812
▁blanket	-10.4815
▁floss	-10.482
▁knees	-10.4831
ps	-10.4833
▁friskies	-10.4841
▁shoulders	-10.4851
ew	-10.4854
good	-10.4857
▁shakes	-10.4864
io	-10.4865
▁lead	-10.4871
▁key	-10.4874
▁neither	-10.4878
▁sprayed	-10.488
lic	-10.489
▁habit	-10.4901
▁dollars	-10.4903
▁foil	-10.4916
▁homemade	-10.492
▁closer	-10.4925
▁baked	-10.4925
▁sensitivity	-10.4929
▁apparently	-10.4929
▁stevia	-10.4931
▁wheat	-10.4933
▁god	-10.4937
▁hadn	-10.4946
▁trips	-10.4963
▁tuna	-10.4967
▁connect	-10.4968
▁bill	-10.4985
▁crock	-10.5009
oreal	-10.5014
▁appearance	-10.5016
▁enjoying	-10.5027
▁flip	-10.5028
▁melted	-10.5029
▁center	-10.5037
▁cast	-10.5039
ware	-10.5041
▁repair	-10.5049
ator	-10.505
▁ja	-10.5052
▁report	-10.5055
▁recent	-10.5059
▁attempt	-10.5059
▁listed	-10.5072
▁basket	-10.5075
▁ski	-10.5075
ative	-10.508
▁sting	-10.5084
ng	-10.5089
▁sat	-10.5093
iest	-10.5094
▁promised	-10.5094
▁died	-10.5095
▁glides	-10.5096
ability	-10.5102
▁drinker	-10.5103
ries	-10.5104
▁method	-10.5116
▁tu	-10.5119
▁nu	-10.513
▁straw	-10.5136
▁evenly	-10.5137
land	-10.5139
▁wasted	-10.5143
▁enfamil	-10.5143
ten	-10.5151
▁sodium	-10.5154
▁states	-10.516
▁offers	-10.5163
▁word	-10.5166
▁paws	-10.5169
these	-10.5175
▁pur	-10.5188
pped	-10.5192
▁warmer	-10.5194
▁installed	-10.5195
▁hi	-10.52
▁search	-10.5201
▁grown	-10.521
▁shocked	-10.5216
gu	-10.5223
▁grass	-10.5225
▁citrus	-10.523
▁peppermint	-10.5235
▁vibrant	-10.5248
izing	-10.5248
▁bra	-10.5251
▁soak	-10.5253
▁drug	-10.5254
▁arrive	-10.5264
▁fight	-10.5284
▁wears	-10.5287
▁recommendation	-10.5289
▁potatoes	-10.529
▁te	-10.5301
▁screws	-10.5305
▁indoor	-10.531
▁searching	-10.5315
▁member	-10.5315
▁wire	-10.5318
▁environment	-10.5321
▁turning	-10.5327
▁dream	-10.5328
▁disappoint	-10.5332
ible	-10.5334
▁pale	-10.5335
▁le	-10.5337
▁fed	-10.5342
top	-10.5351
▁reasons	-10.5352
ley	-10.5353
▁tampon	-10.5357
gi	-10.5359
▁funny	-10.5367
▁breakouts	-10.5371
▁generic	-10.5377
▁charm	-10.5383
▁patches	-10.539
▁pen	-10.5398
▁wild	-10.5405
sion	-10.5413
▁pi	-10.5414
▁nervous	-10.5417
▁es	-10.5417
▁showed	-10.5418
▁surfaces	-10.5422
▁ocado	-10.543
▁relax	-10.543
▁dryness	-10.5431
ru	-10.5433
▁catch	-10.5435
▁plate	-10.5439
▁neutral	-10.5442
▁veggies	-10.545
▁adorable	-10.5459
▁garnier	-10.546
▁fo	-10.547
▁continued	-10.5475
▁crackers	-10.5476
▁checked	-10.5478
ical	-10.5497
▁drank	-10.5511
▁heavier	-10.5515
▁mattress	-10.5517
▁information	-10.5519
ice	-10.5534
▁calorie	-10.554
also	-10.5549
▁mac	-10.5553
▁expiration	-10.5558
▁minor	-10.5568
▁sooner	-10.5574
▁string	-10.5578
▁ph	-10.5579
▁ship	-10.5597
▁hopes	-10.56
▁confidence	-10.5603
▁wine	-10.5608
what	-10.5611
fr	-10.5629
▁underneath	-10.563
▁feeder	-10.563
▁noodles	-10.5637
▁constant	-10.5638
▁sprays	-10.564
▁kittens	-10.5645
made	-10.5656
▁bend	-10.5664
▁letting	-10.5665
▁winner	-10.5674
▁neat	-10.5675
▁blender	-10.5676
tri	-10.5676
▁mins	-10.569
▁waist	-10.569
▁shipment	-10.5694
▁fruity	-10.5706
▁slowly	-10.5719
▁falls	-10.572
ny	-10.5725
over	-10.5726
▁premium	-10.5726
▁situation	-10.5726
▁charged	-10.5728
▁reorder	-10.5729
▁favor	-10.5733
▁dislike	-10.5736
▁sparkling	-10.5737
▁angle	-10.5737
▁moisturize	-10.5738
▁sweating	-10.5739
▁monitor	-10.5755
▁gummies	-10.5757
▁hydrating	-10.576
▁heal	-10.5787
▁spoon	-10.5788
▁tighten	-10.579
▁dandruff	-10.5791
▁replacing	-10.5793
mon	-10.5795
▁contour	-10.5797
▁weespring	-10.5798
▁bean	-10.5798
ug	-10.5809
▁tons	-10.5815
▁whiter	-10.5818
▁shown	-10.5818
▁prescription	-10.5821
▁discreet	-10.5832
▁relatively	-10.5833
▁omg	-10.5841
▁discomfort	-10.5846
▁hidden	-10.5846
▁throat	-10.5848
▁tips	-10.586
▁nicer	-10.5863
wi	-10.5865
▁pouch	-10.587
▁specific	-10.5873
▁sons	-10.5877
▁access	-10.5877
▁cruisers	-10.5879
▁vegetables	-10.5879
▁combo	-10.5881
▁rinsed	-10.5899
▁spending	-10.5908
▁ways	-10.5913
▁satisfying	-10.5928
▁removal	-10.5929
app	-10.593
bi	-10.5945
▁bamboo	-10.5951
▁clipper	-10.5955
▁fleas	-10.596
▁ride	-10.5963
▁snugglers	-10.5965
ial	-10.5966
▁shorter	-10.597
tone	-10.5971
▁smelt	-10.5975
▁grandson	-10.5977
there	-10.5979
▁mainly	-10.5981
▁toss	-10.5984
▁itching	-10.5986
▁coats	-10.5988
▁male	-10.5991
▁grew	-10.5991
▁clips	-10.5995
▁repeat	-10.5996
▁narrow	-10.6001
▁slim	-10.6005
▁belly	-10.6021
▁relieve	-10.6023
▁adhesive	-10.6026
▁bone	-10.6034
▁state	-10.6039
▁vagisil	-10.604
▁causes	-10.604
▁tho	-10.6041
▁comparable	-10.6042
▁liking	-10.6049
ified	-10.6052
ite	-10.6059
▁shirts	-10.606
▁chalky	-10.6061
▁70	-10.6062
▁besides	-10.6063
▁failed	-10.6066
▁gu	-10.6079
▁runny	-10.608
▁45	-10.6085
▁pencil	-10.6086
▁neutrogena	-10.6088
▁fire	-10.609
▁vs	-10.6094
??	-10.6096
▁smoke	-10.6109
▁catnip	-10.6116
▁designs	-10.6121
▁fluffy	-10.6125
▁focus	-10.6127
▁produce	-10.6135
▁sending	-10.6136
▁padding	-10.6136
▁disappointment	-10.6138
▁wavy	-10.614
▁freshener	-10.6142
▁sign	-10.6145
▁bits	-10.615
▁talk	-10.6151
year	-10.6168
▁refills	-10.6175
▁flawless	-10.6184
▁grind	-10.6189
other	-10.619
▁measuring	-10.6193
▁pearl	-10.6199
▁according	-10.6204
▁groggy	-10.6204
▁rechargeable	-10.6207
▁thumbs	-10.6213
▁cough	-10.6217
▁glide	-10.6227
▁sh	-10.6231
▁joint	-10.6252
low	-10.6259
don	-10.6274
▁irritating	-10.6276
▁risk	-10.6281
▁curling	-10.6288
▁sits	-10.629
▁goodness	-10.6294
▁fuss	-10.63
▁drawer	-10.6302
▁assembly	-10.6304
tu	-10.6326
dic	-10.6326
av	-10.6327
▁reviewer	-10.6329
▁carol	-10.6335
▁defective	-10.6336
▁breathe	-10.6337
▁discontinued	-10.6345
▁covering	-10.6363
▁breed	-10.6363
its	-10.6364
▁brighten	-10.6373
▁lives	-10.6374
▁quicker	-10.6374
▁coupon	-10.6375
▁chunks	-10.6377
▁watching	-10.6387
15	-10.6387
▁charcoal	-10.639
sta	-10.6395
▁hubby	-10.6396
▁suction	-10.6396
▁rep	-10.6399
▁yr	-10.6412
▁handles	-10.6414
▁serious	-10.6417
▁ruined	-10.642
box	-10.6426
▁meds	-10.6427
▁zip	-10.6433
▁stir	-10.6433
▁colours	-10.6438
▁factor	-10.6455
▁success	-10.6463
have	-10.6466
▁preference	-10.647
▁fusion	-10.6471
▁styling	-10.6474
▁attachment	-10.6474
▁soften	-10.6478
▁gallon	-10.648
row	-10.648
▁die	-10.6494
▁awkward	-10.6499
▁gently	-10.6499
fin	-10.65
▁smoothie	-10.651
▁coloring	-10.6514
que	-10.6519
▁requires	-10.6529
ka	-10.6532
▁growth	-10.6534
▁:-)	-10.6534
ize	-10.654
▁spills	-10.6551
▁swear	-10.6552
▁healing	-10.6556
▁auto	-10.6557
▁lean	-10.6558
▁waking	-10.6567
▁upper	-10.6569
ow	-10.6572
▁palm	-10.6574
▁beware	-10.6577
▁elastic	-10.6578
▁wa	-10.658
▁lightly	-10.658
▁terrier	-10.6588
▁braun	-10.6589
mg	-10.6592
▁pu	-10.6597
▁probiotics	-10.6599
▁breaks	-10.66
▁knows	-10.6602
ming	-10.6602
▁clump	-10.6605
du	-10.661
ard	-10.6611
▁fear	-10.6614
▁learn	-10.6615
▁suck	-10.6617
▁potato	-10.6617
▁possibly	-10.6621
ide	-10.6629
▁suit	-10.6632
▁concept	-10.6633
▁micro	-10.6634
ever	-10.6647
▁shift	-10.6658
▁wheels	-10.6659
▁colgate	-10.6662
▁filters	-10.6664
▁customers	-10.6669
uc	-10.6679
▁cre	-10.668
▁lately	-10.6686
▁interesting	-10.6688
▁somehow	-10.6689
▁answer	-10.6692
▁crispy	-10.6697
40	-10.6707
▁ob	-10.6707
ction	-10.671
ign	-10.6712
▁pond	-10.6712
▁freshen	-10.6715
ening	-10.6727
▁mis	-10.6734
size	-10.6735
au	-10.6744
▁cra	-10.675
▁tampax	-10.6751
▁trimming	-10.6758
▁sand	-10.6766
▁corner	-10.677
▁com	-10.6772
▁swirlers	-10.6773
▁pans	-10.6775
of	-10.6776
▁selling	-10.6779
▁exp	-10.6779
▁vinegar	-10.678
▁occasional	-10.6788
thank	-10.6794
ins	-10.6794
▁dropped	-10.6801
▁kennel	-10.6811
▁grand	-10.6821
▁carbs	-10.6826
▁construction	-10.6832
▁chewed	-10.6833
▁pros	-10.6843
ue	-10.6848
▁grams	-10.6855
▁spin	-10.6864
▁costs	-10.688
▁female	-10.6881
▁sprinkle	-10.6881
▁importantly	-10.689
▁favorites	-10.6891
▁picking	-10.6896
▁shampoos	-10.691
▁tap	-10.6911
▁hook	-10.6912
▁action	-10.6913
▁term	-10.6913
▁underarms	-10.6915
▁costco	-10.6916
▁loyal	-10.6919
▁yorkie	-10.692
▁detail	-10.6926
▁locally	-10.6937
▁scared	-10.6938
ric	-10.6947
▁american	-10.6949
▁hates	-10.6951
▁fab	-10.6958
▁febreeze	-10.6964
▁moisturizes	-10.6967
▁limited	-10.6972
▁attachments	-10.6977
▁lets	-10.6977
ron	-10.6978
▁road	-10.6979
▁floral	-10.6983
▁lime	-10.6985
▁outstanding	-10.6989
▁whey	-10.699
▁collars	-10.6995
▁sn	-10.6998
▁chin	-10.7
▁rinsing	-10.7
▁physical	-10.7001
▁managed	-10.7012
▁softener	-10.7016
fu	-10.7028
▁transition	-10.703
▁granddaughter	-10.703
mal	-10.7039
▁swimming	-10.704
▁accidentally	-10.7049
▁outdoor	-10.7051
▁class	-10.7067
▁comments	-10.707
▁shelves	-10.708
▁smile	-10.708
pan	-10.708
▁specifically	-10.7082
▁truvia	-10.7084
▁mor	-10.7088
log	-10.7091
val	-10.7093
▁laying	-10.7096
▁jumbo	-10.7097
▁bum	-10.7103
▁selection	-10.7103
▁flu	-10.7111
ls	-10.7117
▁salmon	-10.7126
▁lucky	-10.7129
▁vent	-10.7146
▁tv	-10.7156
▁frustrating	-10.7163
▁garden	-10.7165
▁stainless	-10.7168
▁consumer	-10.7172
▁bio	-10.7177
▁17	-10.718
star	-10.718
▁200	-10.7187
▁pin	-10.7187
▁include	-10.7188
▁bake	-10.7188
▁cross	-10.7199
▁flap	-10.7209
▁spill	-10.7214
ify	-10.7218
▁bubble	-10.7219
▁earlier	-10.7225
▁significantly	-10.7225
▁visible	-10.7226
ok	-10.7228
des	-10.7243
▁stocking	-10.7243
▁decide	-10.7243
▁repurchase	-10.725
gh	-10.7252
▁mirror	-10.7256
▁poo	-10.726
▁pictured	-10.7261
▁wave	-10.7268
▁missed	-10.7272
▁gifts	-10.7274
ture	-10.7292
▁wind	-10.7301
▁law	-10.7305
▁dollar	-10.7312
▁shoe	-10.7313
▁project	-10.7316
overall	-10.732
▁cor	-10.7321
ute	-10.7326
▁portable	-10.7328
od	-10.7332
▁scrubbing	-10.7333
▁bikini	-10.7336
▁nutritional	-10.7338
▁afford	-10.7343
▁strongly	-10.7344
▁invisible	-10.7346
▁fade	-10.7352
▁restaurant	-10.7355
▁bargain	-10.7357
▁flash	-10.7359
▁brushed	-10.7366
▁inter	-10.7374
▁brite	-10.7379
▁ariel	-10.7379
▁coarse	-10.7382
ose	-10.7398
▁ti	-10.7404
▁relaxing	-10.7411
▁cleared	-10.7421
▁rubbing	-10.7427
▁waited	-10.7427
▁straighten	-10.7432
par	-10.7434
▁probiotic	-10.7437
▁cage	-10.7446
▁ounce	-10.7448
▁forgot	-10.7457
▁arch	-10.7461
▁bc	-10.7467
rn	-10.7481
cial	-10.7484
▁mode	-10.7485
▁force	-10.7494
ough	-10.7498
gy	-10.7499
▁bond	-10.7501
ments	-10.7502
▁trusted	-10.7502
▁becomes	-10.7506
qui	-10.7507
▁memory	-10.7519
▁accidents	-10.7533
cur	-10.7534
▁transfer	-10.7536
▁extreme	-10.7545
▁stops	-10.7545
▁coating	-10.7562
ration	-10.7563
▁terrific	-10.7566
▁significant	-10.7566
▁3-4	-10.7567
▁carb	-10.7569
rate	-10.7572
▁underwear	-10.7573
▁promise	-10.7584
▁grooming	-10.7585
▁luckily	-10.7587
▁numerous	-10.7593
▁tag	-10.7613
▁earth	-10.762
▁somewhere	-10.762
uck	-10.7621
▁challenge	-10.7626
▁valley	-10.7634
▁square	-10.7642
▁enjoyable	-10.7643
▁bucks	-10.765
▁infection	-10.765
▁budget	-10.7655
▁powering	-10.7659
▁efficient	-10.7661
▁matches	-10.7673
▁brother	-10.7673
▁salads	-10.7681
cat	-10.7681
▁tomato	-10.7681
▁himself	-10.7683
▁bubbles	-10.7686
▁fresher	-10.7687
ip	-10.7687
▁served	-10.7693
her	-10.7694
▁board	-10.7695
▁warning	-10.7697
▁chai	-10.77
▁refuse	-10.7705
▁rush	-10.7708
▁medical	-10.7717
▁lil	-10.7721
▁initial	-10.7722
▁apartment	-10.7729
▁lids	-10.7746
▁tad	-10.7747
▁insoles	-10.7753
▁hungry	-10.7754
ure	-10.7755
▁anytime	-10.7758
▁draw	-10.7766
ella	-10.7767
▁sol	-10.7769
▁mg	-10.7781
▁willing	-10.7782
▁creme	-10.7783
▁tongue	-10.7789
▁definately	-10.7794
ably	-10.7794
▁timer	-10.78
▁losing	-10.7801
▁sizing	-10.781
▁crap	-10.7816
▁weekly	-10.7822
▁lady	-10.7823
▁doors	-10.783
▁eyebrows	-10.7833
▁act	-10.7844
ral	-10.7847
▁dessert	-10.7853
▁va	-10.7856
▁everytime	-10.7858
oc	-10.7858
▁shouldn	-10.7858
▁cone	-10.7859
▁whatsoever	-10.7863
▁fa	-10.7866
▁soaps	-10.7867
▁similac	-10.7868
▁versatile	-10.787
25	-10.7872
▁common	-10.7872
ions	-10.7873
▁dump	-10.7878
▁soaked	-10.788
▁diffuser	-10.788
▁stable	-10.7889
▁shock	-10.7892
fit	-10.7904
▁blended	-10.7905
pre	-10.7906
easy	-10.7915
▁flowers	-10.7916
▁warranty	-10.7917
▁ahead	-10.7918
▁workouts	-10.7921
car	-10.7921
▁lie	-10.7925
▁wise	-10.7928
▁pulls	-10.7929
ise	-10.7931
▁varieties	-10.7934
▁contained	-10.7939
will	-10.7941
▁anxiety	-10.7944
▁individually	-10.7948
▁disc	-10.7954
▁describe	-10.7964
▁itch	-10.7972
gr	-10.7984
▁prepare	-10.7986
▁degree	-10.7988
▁pantry	-10.799
yr	-10.7992
▁wiping	-10.7997
▁tasteless	-10.801
▁flakes	-10.801
▁bacon	-10.8011
▁subscription	-10.8013
▁sausage	-10.802
▁bay	-10.8028
▁capsule	-10.804
▁mount	-10.8049
▁venus	-10.8069
night	-10.8073
yl	-10.8084
▁tile	-10.8087
▁gonna	-10.8088
lie	-10.809
▁pic	-10.8093
▁bedding	-10.8094
▁dig	-10.8095
▁birth	-10.8098
▁badly	-10.8099
▁achieve	-10.8105
▁gi	-10.8109
▁hr	-10.8109
▁swa	-10.811
ches	-10.8113
late	-10.8122
▁herbal	-10.8128
▁whites	-10.8136
▁downy	-10.8143
lly	-10.8149
▁town	-10.8159
▁tolerate	-10.8159
▁pamper	-10.8168
▁advanced	-10.818
▁teething	-10.818
▁sponges	-10.8183
▁dyed	-10.8188
▁sooo	-10.819
▁bri	-10.8194
▁fried	-10.8202
▁companies	-10.8219
▁senior	-10.8222
▁paw	-10.8224
cy	-10.8225
gan	-10.8226
lin	-10.8232
▁stove	-10.8235
▁developed	-10.8241
▁cla	-10.8255
▁boo	-10.8256
▁writing	-10.8264
▁pri	-10.8275
▁stinky	-10.8287
gging	-10.83
▁rust	-10.8301
▁guests	-10.8307
cor	-10.8307
▁tank	-10.8307
▁cell	-10.8315
▁calcium	-10.8316
bl	-10.8323
▁cloths	-10.8323
▁burnt	-10.8329
▁practice	-10.8332
▁enhance	-10.8337
▁eco	-10.8339
▁disappear	-10.834
▁addicted	-10.834
▁pr	-10.8341
ically	-10.8351
duct	-10.8352
▁brows	-10.8355
ick	-10.8357
▁passed	-10.8361
▁fixed	-10.8364
▁che	-10.8366
ack	-10.8378
▁contents	-10.8379
▁plugged	-10.838
▁develop	-10.8381
▁heartburn	-10.8382
▁bark	-10.8386
▁tri	-10.8386
▁dermatologist	-10.8397
ang	-10.8398
▁train	-10.8398
▁chili	-10.84
▁diabetic	-10.8402
▁yeast	-10.8406
▁jam	-10.8408
▁holiday	-10.8409
▁herself	-10.8409
▁effectively	-10.8413
hy	-10.8413
▁headache	-10.842
▁stubborn	-10.8431
ily	-10.8438
▁eight	-10.8453
tan	-10.8458
▁silver	-10.8459
▁2-	-10.8459
▁popped	-10.8464
ear	-10.8466
▁showing	-10.847
▁fragrances	-10.8485
▁permanent	-10.8486
▁decor	-10.8494
▁sleeve	-10.8495
▁gritty	-10.8497
get	-10.8511
col	-10.8513
▁reccomend	-10.8514
color	-10.8521
▁bird	-10.8524
▁bucket	-10.8531
br	-10.8532
▁popular	-10.8552
▁weighs	-10.8554
▁armpits	-10.8555
▁latte	-10.8558
▁flex	-10.8559
▁therapy	-10.857
▁reg	-10.857
▁granola	-10.8571
▁patient	-10.8572
▁smelly	-10.8574
▁yrs	-10.8576
▁rated	-10.8578
▁burns	-10.8578
ec	-10.8581
▁email	-10.8588
▁dawn	-10.8588
▁wider	-10.859
▁brow	-10.8591
▁fri	-10.8596
▁intake	-10.8597
▁belt	-10.8597
▁almonds	-10.8598
iv	-10.86
▁san	-10.8603
▁thankful	-10.8615
▁land	-10.8615
ient	-10.8618
▁terms	-10.8619
ight	-10.8623
▁roasted	-10.8628
▁hanging	-10.863
▁elsewhere	-10.8633
▁mood	-10.8637
ag	-10.8638
▁learning	-10.864
▁sets	-10.8643
▁par	-10.8657
▁providing	-10.8658
▁sweaty	-10.8668
▁limit	-10.867
▁periods	-10.8671
▁splash	-10.8676
▁pots	-10.8677
▁wasnt	-10.8685
▁mandarin	-10.8689
▁happily	-10.8696
▁words	-10.8703
▁beats	-10.8714
▁steam	-10.872
▁ge	-10.8723
▁refresh	-10.8724
▁boot	-10.8732
▁loop	-10.8737
▁ur	-10.8753
▁tick	-10.876
dent	-10.8761
▁freeze	-10.8767
▁mayo	-10.8769
▁soooo	-10.8785
▁philips	-10.8785
▁protects	-10.8796
rk	-10.8796
cho	-10.8802
▁introduced	-10.8808
wo	-10.8809
▁schick	-10.8811
▁tries	-10.8814
▁shaves	-10.8815
more	-10.8827
▁cancer	-10.8828
▁sweeteners	-10.8829
▁prefers	-10.8834
▁mango	-10.8834
▁jo	-10.8841
▁bites	-10.8843
▁exclusively	-10.8847
▁lived	-10.8847
▁standing	-10.8847
▁allowing	-10.8848
law	-10.8861
▁compartment	-10.8863
▁walked	-10.8868
▁panasonic	-10.8868
▁jack	-10.8869
▁ka	-10.8871
▁climb	-10.8891
▁tart	-10.8891
▁greenies	-10.8904
▁camping	-10.8905
▁movers	-10.8918
▁adults	-10.8923
▁aids	-10.8931
▁sandwich	-10.8933
pic	-10.8937
▁talking	-10.8937
▁bull	-10.8949
▁bump	-10.8955
▁balanced	-10.8956
▁washable	-10.8958
ups	-10.8964
ory	-10.8965
▁sandwiches	-10.8966
▁pat	-10.8972
▁packing	-10.8987
▁raspberry	-10.8993
▁masks	-10.8994
▁towards	-10.8994
▁usage	-10.8995
▁durability	-10.8996
▁ruin	-10.8999
▁smudge	-10.9002
▁pacifier	-10.9006
▁ju	-10.9006
▁tail	-10.9016
▁activity	-10.9021
▁beverage	-10.9023
▁kibble	-10.9026
▁commercial	-10.9028
order	-10.9037
▁bees	-10.9045
▁joints	-10.9057
dis	-10.9058
▁nutrients	-10.9062
▁skip	-10.9065
▁stra	-10.9066
:)	-10.9068
▁consume	-10.9073
▁pregnancy	-10.9073
▁italian	-10.9075
▁shaved	-10.9081
natural	-10.9082
used	-10.9088
pper	-10.9089
▁explain	-10.909
▁park	-10.9091
▁detergents	-10.9106
▁cri	-10.911
▁tones	-10.9119
▁5-	-10.912
▁dec	-10.9121
▁tissues	-10.9122
▁soothe	-10.9126
▁collection	-10.9131
▁spices	-10.9132
▁tools	-10.9134
▁adore	-10.9136
▁greys	-10.9143
▁powders	-10.9145
ile	-10.9146
▁materials	-10.9154
▁dress	-10.9162
▁silicone	-10.9163
▁turkey	-10.9166
pers	-10.9168
?!	-10.9171
▁needless	-10.9174
▁burt	-10.9176
▁para	-10.9177
▁luxurious	-10.9183
mart	-10.9197
▁flea	-10.9198
eat	-10.9199
▁puff	-10.9202
▁nozzle	-10.9203
▁obvious	-10.9203
▁coupons	-10.9206
gg	-10.9213
▁listen	-10.9218
▁conditioning	-10.9222
▁garage	-10.9228
▁crib	-10.9232
▁stage	-10.9254
▁suggestion	-10.9259
▁prepared	-10.927
▁mug	-10.927
▁mouse	-10.9274
▁exception	-10.9274
▁deliver	-10.9277
▁decision	-10.9277
too	-10.9279
▁occasion	-10.9282
▁aspect	-10.9289
▁numbers	-10.9296
▁carefully	-10.9297
▁thrown	-10.93
month	-10.9305
▁mesh	-10.931
mat	-10.9312
▁wo	-10.9316
▁tomatoes	-10.9316
▁norelco	-10.9324
▁suds	-10.9324
▁wings	-10.9327
▁spare	-10.9331
▁effectiveness	-10.9341
▁generous	-10.9341
▁elderly	-10.9345
den	-10.9347
▁thankfully	-10.9355
▁seats	-10.9355
ked	-10.9364
▁economical	-10.9364
▁chunky	-10.9369
▁telling	-10.9372
▁discount	-10.9372
▁bedtime	-10.9378
new	-10.938
ious	-10.9384
▁recomend	-10.9391
▁highlights	-10.9392
▁heel	-10.9392
▁sniff	-10.9399
▁advice	-10.9401
▁dixie	-10.9401
▁q	-10.9401
▁moves	-10.941
▁mum	-10.9413
▁puppies	-10.9419
▁response	-10.9421
▁recommending	-10.9422
▁bones	-10.9431
▁sweater	-10.9437
▁guide	-10.9439
▁folds	-10.9441
▁aloe	-10.9441
▁ounces	-10.9443
▁poorly	-10.9444
▁jelly	-10.9444
▁streaks	-10.9451
▁gloss	-10.9454
▁35	-10.9457
▁shaped	-10.9458
cal	-10.9466
▁obsessed	-10.9489
▁freak	-10.9492
▁stained	-10.9497
whilst	-10.9499
bro	-10.9504
▁platinum	-10.9511
pp	-10.9518
▁mixture	-10.9518
▁nurse	-10.9524
▁tablet	-10.9527
read	-10.9528
▁dough	-10.9534
vis	-10.9535
▁usa	-10.9536
▁dispense	-10.9537
▁clog	-10.9539
▁oats	-10.954
▁leather	-10.9543
▁corners	-10.9543
▁remote	-10.955
▁ultimate	-10.9551
▁walls	-10.9553
▁ramp	-10.9554
▁mountain	-10.9558
fect	-10.9561
▁scissors	-10.9562
q	-10.9565
▁boots	-10.9566
pen	-10.957
▁awake	-10.9571
▁scratcher	-10.9577
see	-10.958
product	-10.958
▁excess	-10.9584
▁reactions	-10.9599
▁english	-10.9602
ched	-10.9605
▁nursing	-10.9612
▁....	-10.9613
▁picks	-10.9614
▁peace	-10.9614
▁flavours	-10.9615
▁experiment	-10.9616
▁brings	-10.9618
▁trained	-10.9619
▁punch	-10.962
▁skinny	-10.9621
▁adjustment	-10.9631
fla	-10.9631
▁remain	-10.9632
▁fitting	-10.9635
▁johnson	-10.9636
▁jacket	-10.9639
▁bang	-10.9641
▁ac	-10.9645
-1	-10.9648
▁drugstore	-10.9648
▁pork	-10.9654
▁indeed	-10.9654
ev	-10.9668
hr	-10.9669
▁combined	-10.9673
▁functional	-10.9681
▁heaven	-10.9682
icle	-10.9683
▁twins	-10.9683
▁cur	-10.9683
!!!!!!	-10.9685
ja	-10.9687
▁broth	-10.9688
however	-10.969
sure	-10.969
▁haha	-10.9696
▁extend	-10.9697
▁wondering	-10.9703
▁patch	-10.9703
▁appetite	-10.9704
▁eliminate	-10.9705
▁soo	-10.9708
▁members	-10.9709
▁coffees	-10.972
▁berry	-10.9726
gle	-10.9734
▁gels	-10.9735
▁increased	-10.9736
100	-10.9738
load	-10.9743
▁transport	-10.9748
▁lifesaver	-10.9754
▁xl	-10.976
▁tangles	-10.976
▁shedding	-10.9765
▁sip	-10.978
▁keto	-10.9784
▁contacted	-10.9795
▁art	-10.9797
▁humid	-10.9801
▁extension	-10.9801
▁greatly	-10.9802
nce	-10.9802
▁cooling	-10.9803
▁tim	-10.9806
▁choices	-10.981
▁pancakes	-10.9815
▁spraying	-10.9816
▁steak	-10.9823
▁tweezers	-10.9831
▁war	-10.9833
▁appealing	-10.9835
health	-10.9838
▁pups	-10.9839
▁caps	-10.9839
▁upgrade	-10.9842
▁grape	-10.9843
▁bug	-10.9846
▁mon	-10.9853
▁fence	-10.9861
▁whiten	-10.9866
ox	-10.9866
▁jars	-10.9867
▁technology	-10.9874
▁ridiculous	-10.9875
▁1/4	-10.9876
▁perform	-10.9881
▁puffs	-10.9882
▁pillows	-10.9892
bit	-10.9892
especially	-10.9897
▁cupboard	-10.9903
▁poise	-10.9906
▁persil	-10.9913
▁ham	-10.9918
▁folks	-10.9919
▁bounce	-10.9922
▁immune	-10.9925
▁father	-10.9929
▁worries	-10.9934
▁tears	-10.9934
▁giant	-10.9939
▁clumping	-10.9941
▁plugs	-10.9943
?)	-10.9943
▁vo	-10.9948
▁glove	-10.9952
▁treated	-10.9955
▁buyer	-10.9958
only	-10.9959
▁swing	-10.9964
workout	-10.9971
stick	-10.9974
▁react	-10.9977
▁dozen	-10.9979
▁hesitate	-10.9991
▁difficulty	-10.9994
ult	-10.9998
▁teen	-10.9999
▁stands	-10.9999
▁wedding	-11
▁suitable	-11.0011
zo	-11.0016
▁task	-11.0019
▁meet	-11.0019
▁tab	-11.0021
▁regardless	-11.0023
▁broom	-11.0024
▁china	-11.0027
▁tint	-11.0028
zer	-11.0028
▁poodle	-11.0033
▁lube	-11.0045
▁hydration	-11.0049
▁dying	-11.0056
▁noticeably	-11.0066
▁occasions	-11.0066
▁cheaply	-11.0067
▁moms	-11.0072
head	-11.0074
▁yeah	-11.0077
▁straightener	-11.0085
▁rev	-11.0086
▁width	-11.0087
▁error	-11.0091
???	-11.0091
▁maple	-11.0092
▁cashew	-11.0097
thanks	-11.01
▁closest	-11.0116
▁owner	-11.0122
▁mornings	-11.0125
▁slippery	-11.0127
▁example	-11.0131
▁compares	-11.0136
▁club	-11.0147
▁photos	-11.0159
▁monthly	-11.0162
▁wahl	-11.0164
▁;)	-11.0166
▁odour	-11.0166
▁solved	-11.0174
▁asking	-11.0183
▁view	-11.0193
▁motion	-11.0196
▁hydrate	-11.0197
▁stylish	-11.0198
▁hunt	-11.0199
▁sofa	-11.0206
would	-11.0207
▁assume	-11.021
▁disease	-11.0222
▁flaw	-11.023
▁buzz	-11.0238
nut	-11.0241
▁curve	-11.0243
:-	-11.0244
▁cramps	-11.0245
▁investment	-11.0248
▁heated	-11.0249
▁entirely	-11.0254
▁sw	-11.0255
ene	-11.0255
▁cheapest	-11.0256
▁xtend	-11.0262
▁digest	-11.0262
▁becoming	-11.0264
▁heats	-11.0268
hair	-11.027
▁toddlers	-11.0271
jo	-11.0276
▁tops	-11.0282
▁onion	-11.0288
▁je	-11.029
▁showering	-11.0299
▁alarm	-11.0301
water	-11.0301
▁aside	-11.0302
▁bacteria	-11.0306
len	-11.0309
▁lazy	-11.0309
▁crushed	-11.0312
▁seed	-11.0314
▁desired	-11.0318
▁dosage	-11.0318
oh	-11.0319
cut	-11.0322
▁snow	-11.0339
▁brain	-11.0347
▁scar	-11.0354
▁windows	-11.0356
▁trade	-11.0357
]	-11.0357
▁opposed	-11.036
mate	-11.0363
▁sto	-11.0371
▁steep	-11.0388
▁knot	-11.0402
eg	-11.0406
▁pops	-11.0414
▁torn	-11.0414
▁remind	-11.0421
bar	-11.0422
▁link	-11.0424
▁noisy	-11.0433
▁commented	-11.0435
▁directed	-11.0435
▁slick	-11.0436
▁flush	-11.0441
▁turmeric	-11.0442
▁greatest	-11.0443
ler	-11.0444
bie	-11.0447
▁points	-11.0449
bed	-11.0449
▁plush	-11.0452
▁semi	-11.046
▁toner	-11.0462
▁struggled	-11.0464
▁breastfeeding	-11.0465
▁retriever	-11.0473
▁diarrhea	-11.0474
▁faded	-11.0482
▁potential	-11.0483
▁streak	-11.0488
▁flake	-11.049
▁ladies	-11.0494
ju	-11.0509
▁gro	-11.0509
▁equal	-11.0511
▁overpriced	-11.0515
▁college	-11.0518
▁lover	-11.0534
▁chill	-11.0536
heat	-11.0537
▁peanuts	-11.0542
▁forehead	-11.0546
▁advantage	-11.055
▁glitter	-11.055
ica	-11.0562
▁doggie	-11.0563
▁impressive	-11.0566
▁cleanse	-11.0569
▁bent	-11.0571
care	-11.0571
▁wasting	-11.0574
▁cholesterol	-11.0577
▁pail	-11.0579
unk	-11.0581
▁craving	-11.0581
▁retain	-11.0585
▁covergirl	-11.059
▁pm	-11.0603
▁sliding	-11.0604
▁guarantee	-11.0612
▁invest	-11.0616
▁adequate	-11.062
▁schedule	-11.062
act	-11.0624
▁grateful	-11.0624
▁respond	-11.0625
gin	-11.0625
▁flaky	-11.0625
▁newborns	-11.0626
60	-11.0628
chi	-11.063
▁bladder	-11.0631
▁weighed	-11.0633
▁degrees	-11.0633
!).	-11.0634
▁del	-11.0637
▁measurements	-11.0649
▁shell	-11.0653
▁station	-11.0654
▁yo	-11.0667
▁recovery	-11.0669
▁twin	-11.0681
▁reflux	-11.0682
▁qua	-11.0683
▁cheeks	-11.0684
▁backpack	-11.0686
▁fashion	-11.0691
▁fuzz	-11.0696
▁booster	-11.0696
ash	-11.0699
▁boxer	-11.0706
▁75	-11.0708
▁pumpkin	-11.0708
▁fav	-11.071
▁definite	-11.0713
▁buckle	-11.0713
▁impression	-11.0715
▁circles	-11.0719
▁prevents	-11.0734
ock	-11.0734
lan	-11.0736
▁superb	-11.0738
▁22	-11.0738
ese	-11.0748
▁chairs	-11.0757
▁vary	-11.076
▁hazelnut	-11.0765
▁blush	-11.0767
▁interest	-11.0767
ban	-11.0772
▁wouldnt	-11.0781
▁flavoring	-11.0783
hu	-11.0785
▁crowdtap	-11.0787
▁immediate	-11.08
nder	-11.0808
▁leading	-11.0816
▁rave	-11.0816
▁proglide	-11.0832
▁brownie	-11.0834
set	-11.0834
yes	-11.0842
active	-11.0843
▁promptly	-11.0851
▁teaspoon	-11.0866
▁direction	-11.0872
▁swim	-11.0877
▁fluid	-11.088
▁delighted	-11.0892
▁location	-11.0893
▁tp	-11.0898
van	-11.0903
▁sonicare	-11.0906
hoo	-11.0912
▁closet	-11.0913
▁clay	-11.0913
▁boil	-11.0914
▁soups	-11.0922
▁frequent	-11.0923
down	-11.0924
▁drawback	-11.0925
▁muscles	-11.0937
make	-11.094
▁pouches	-11.0944
▁tablespoon	-11.0945
▁raised	-11.0945
▁digital	-11.0949
▁removable	-11.0952
cha	-11.0962
▁highest	-11.0966
▁created	-11.0968
▁suffered	-11.0969
gie	-11.097
▁excessive	-11.0971
sized	-11.0972
▁goo	-11.0975
▁blueberry	-11.0976
▁mechanism	-11.0977
taste	-11.0977
bling	-11.0982
▁exfoliate	-11.0984
board	-11.0984
▁cho	-11.0993
▁expired	-11.1015
▁finicky	-11.1016
▁tidy	-11.1018
▁delivers	-11.1022
ris	-11.1031
▁refused	-11.1033
▁sync	-11.1039
▁candle	-11.1039
▁sports	-11.105
▁regimen	-11.1054
▁rolling	-11.1055
▁processed	-11.1057
▁fond	-11.1057
ix	-11.1062
▁trigger	-11.1066
▁applies	-11.108
weight	-11.1083
▁series	-11.1083
▁bowel	-11.1085
▁wrapper	-11.109
flavor	-11.1094
▁spec	-11.1095
▁grade	-11.1097
bb	-11.1105
▁scratches	-11.1107
win	-11.1108
▁partner	-11.1111
▁tracking	-11.1111
▁harmful	-11.1114
▁calming	-11.1118
ina	-11.1119
▁versions	-11.1137
▁compression	-11.1145
▁cure	-11.1146
▁pleasure	-11.1147
▁fills	-11.1149
▁convinced	-11.1149
▁curious	-11.1154
▁cases	-11.1161
lock	-11.1162
▁shimmer	-11.1166
▁hurry	-11.117
▁absorbing	-11.117
▁sensor	-11.117
ette	-11.1173
▁compliment	-11.1174
▁sew	-11.1175
▁seam	-11.1184
▁detect	-11.1187
▁asda	-11.1188
▁express	-11.1196
▁constipation	-11.1198
▁appropriate	-11.1201
itis	-11.1211
▁lick	-11.1211
▁servings	-11.1212
▁extended	-11.1213
▁bleeding	-11.1214
▁highlight	-11.1223
▁shed	-11.1226
who	-11.1226
▁encourage	-11.1236
▁liver	-11.1239
▁accept	-11.1243
▁dread	-11.1251
uring	-11.1257
▁modern	-11.1259
▁rinses	-11.1273
▁pea	-11.128
▁florida	-11.128
▁easiest	-11.1287
▁choke	-11.1294
▁girlfriend	-11.1294
▁aging	-11.1298
▁vegetable	-11.1298
▁sulfate	-11.1299
▁mr	-11.1301
▁jumping	-11.1304
▁vaseline	-11.1311
▁delightful	-11.1315
▁includes	-11.1319
▁perfumes	-11.1325
▁chronic	-11.1325
▁bleed	-11.1328
▁suffering	-11.1337
▁alright	-11.1356
▁plane	-11.1358
▁practical	-11.136
▁moisturizers	-11.1361
▁pigmented	-11.1366
▁beads	-11.1369
ush	-11.1372
▁trail	-11.1378
▁tangled	-11.138
▁depend	-11.1386
▁complexion	-11.1388
11	-11.1389
rant	-11.1394
▁rubbed	-11.1404
▁misleading	-11.1406
▁fre	-11.141
▁stack	-11.142
▁fry	-11.142
▁mushroom	-11.1422
▁gates	-11.1423
vita	-11.1426
hand	-11.1426
bil	-11.1426
▁shadow	-11.1437
▁inner	-11.144
▁miles	-11.1442
▁sam	-11.145
▁meaning	-11.1451
▁gap	-11.1453
fo	-11.1455
did	-11.1457
▁disappeared	-11.1459
▁sinus	-11.1461
▁character	-11.1463
ren	-11.1463
▁plays	-11.1464
▁grows	-11.1468
fresh	-11.1468
▁squ	-11.1477
▁buck	-11.148
back	-11.1489
▁purely	-11.1491
▁mineral	-11.1496
▁pacifiers	-11.1497
▁resistant	-11.1497
▁aluminum	-11.1499
▁sweep	-11.1501
treat	-11.1506
▁bugs	-11.1507
▁row	-11.1508
16	-11.1511
▁cakes	-11.1513
▁story	-11.152
▁group	-11.1521
▁bomb	-11.1524
▁strain	-11.1526
▁planning	-11.1528
▁til	-11.153
ah	-11.1531
▁rely	-11.1543
▁static	-11.1549
▁gobbled	-11.1549
▁adjusted	-11.1549
▁burp	-11.1553
cc	-11.1557
▁leftover	-11.1558
▁folded	-11.1559
▁precise	-11.1562
▁pleasing	-11.1564
▁ce	-11.1564
▁coq	-11.1568
▁har	-11.1572
▁appreciated	-11.1572
▁bbq	-11.1577
▁amounts	-11.1577
▁securely	-11.1577
▁fer	-11.1581
itch	-11.1583
▁mad	-11.1585
▁1.5	-11.1586
▁(2	-11.1592
▁pug	-11.1599
although	-11.1601
▁delights	-11.1603
▁stored	-11.1607
▁selects	-11.1636
▁vari	-11.1637
▁massive	-11.164
▁session	-11.1642
▁public	-11.1649
▁bun	-11.1659
itive	-11.1659
▁wal	-11.1659
cream	-11.166
▁settle	-11.1662
▁fixture	-11.1667
▁net	-11.1672
air	-11.1684
maybe	-11.1697
▁watt	-11.1702
▁squirt	-11.171
▁tricky	-11.1711
▁youtube	-11.1718
▁defiantly	-11.1722
▁laugh	-11.1722
▁reusable	-11.1727
▁fewer	-11.1729
▁unsure	-11.173
▁appeared	-11.173
▁beer	-11.1733
▁recharge	-11.1734
▁sucks	-11.1739
▁buttery	-11.1743
▁spoiled	-11.1747
wr	-11.175
ived	-11.1758
▁destroyed	-11.176
▁headaches	-11.1769
▁skincare	-11.1773
▁unhappy	-11.1777
▁discover	-11.1783
80	-11.1786
▁blister	-11.1787
▁berries	-11.1787
▁hurts	-11.1787
▁collect	-11.1806
gue	-11.1809
▁moderate	-11.1812
▁gen	-11.1816
▁info	-11.1816
---	-11.1817
mark	-11.1817
▁refrigerator	-11.1819
▁sheer	-11.1824
▁clock	-11.183
▁determine	-11.1831
band	-11.1835
▁escape	-11.1839
▁suspect	-11.1841
▁absorption	-11.1849
▁feminine	-11.1851
▁spreads	-11.1852
▁counters	-11.1852
▁humidity	-11.1857
▁joke	-11.1858
▁fool	-11.1858
▁prices	-11.186
▁magnesium	-11.1864
▁layers	-11.1865
▁slimy	-11.1865
▁burst	-11.1868
▁thread	-11.1871
▁biscuits	-11.1873
▁robust	-11.1874
▁hose	-11.1876
ong	-11.1902
▁barking	-11.1908
▁whi	-11.1926
▁tame	-11.1931
▁mousse	-11.1939
▁digestion	-11.1939
▁brittle	-11.1941
ium	-11.1947
▁peeling	-11.1947
▁worrying	-11.1947
▁computer	-11.1949
▁sticker	-11.1954
large	-11.1957
▁ceramic	-11.1961
▁smoking	-11.1964
▁gassy	-11.1964
▁dense	-11.1965
▁wheel	-11.1974
▁scream	-11.1975
▁faucet	-11.1976
ef	-11.1981
▁toxic	-11.1983
▁continues	-11.1984
ching	-11.1998
▁mayonnaise	-11.2004
▁remaining	-11.2009
▁cards	-11.2014
▁terribly	-11.2019
▁swipe	-11.2027
▁bluetooth	-11.2029
▁drag	-11.2031
▁thr	-11.2034
▁magnet	-11.2037
cru	-11.2039
▁stray	-11.2039
▁tearing	-11.2044
▁outer	-11.2049
▁chewable	-11.2053
▁lifting	-11.2058
▁maybelline	-11.2065
ane	-11.2067
▁hearing	-11.2068
▁models	-11.2074
▁tubes	-11.2076
▁mill	-11.2086
▁(1	-11.2092
▁chain	-11.2092
▁dim	-11.2099
▁teether	-11.21
▁aerosol	-11.2101
inate	-11.2101
flo	-11.2102
▁medications	-11.2102
▁creates	-11.2103
18	-11.2105
▁omega	-11.2108
bby	-11.2113
▁feedback	-11.2114
pri	-11.2118
▁fuller	-11.212
▁uneven	-11.2124
▁slides	-11.2124
▁salted	-11.2139
▁stubble	-11.2144
▁inserts	-11.2145
▁swaddle	-11.2152
▁proven	-11.2155
▁fighting	-11.2158
▁stocked	-11.2163
▁music	-11.2165
▁1-2	-11.2173
▁considered	-11.2184
▁gin	-11.2186
▁activities	-11.2203
▁fragrant	-11.2203
▁cozy	-11.2204
▁conditions	-11.2215
▁dangerous	-11.2216
▁bothered	-11.2219
▁muffin	-11.2224
▁fla	-11.2227
▁sampling	-11.2229
▁horse	-11.2242
▁destroy	-11.2249
▁movie	-11.225
ual	-11.2252
▁shred	-11.2253
▁lighten	-11.2255
▁native	-11.2259
▁dealing	-11.2265
▁defin	-11.2269
▁carried	-11.2273
▁burger	-11.2274
▁beige	-11.2279
▁treatments	-11.228
▁nutritious	-11.2284
▁embarrassing	-11.2289
▁setup	-11.2294
▁scrape	-11.2295
▁dissolves	-11.2298
▁brewing	-11.2299
▁harm	-11.2301
▁truck	-11.2302
▁bulldog	-11.2302
▁additives	-11.231
▁melts	-11.2315
▁practically	-11.2318
▁mocha	-11.2324
put	-11.2327
▁attack	-11.2339
pet	-11.234
▁measured	-11.234
▁finishing	-11.2343
point	-11.2343
▁niece	-11.2344
cess	-11.2346
▁fly	-11.2347
▁lighting	-11.2349
▁vegetarian	-11.2351
▁handful	-11.2354
▁among	-11.2355
▁remains	-11.2355
▁depends	-11.2356
▁rare	-11.2356
▁substantial	-11.2357
▁sneak	-11.2357
▁image	-11.2357
place	-11.2363
▁bic	-11.2368
▁elbow	-11.2371
▁hits	-11.2373
▁inflammation	-11.2378
▁stylist	-11.2383
▁curry	-11.2392
▁relaxed	-11.2392
mil	-11.2399
▁retail	-11.2402
▁page	-11.2411
▁scars	-11.242
▁rimmel	-11.2422
▁bleached	-11.2434
▁chart	-11.2436
ouch	-11.2437
▁emergency	-11.2441
cap	-11.2443
based	-11.2445
▁trans	-11.2456
▁hu	-11.2457
thing	-11.2458
proof	-11.2458
▁nipples	-11.2466
▁coated	-11.2466
right	-11.2468
▁vibration	-11.247
▁palette	-11.247
▁heck	-11.2477
▁melatonin	-11.248
▁sur	-11.2482
▁blankets	-11.2484
▁timely	-11.2484
▁triple	-11.2486
▁dane	-11.2487
ship	-11.2487
▁searched	-11.2494
▁rod	-11.2504
▁exceeded	-11.2504
▁wrapping	-11.2507
▁minimum	-11.2507
pm	-11.2509
▁final	-11.2513
▁expand	-11.2513
▁hotel	-11.2514
▁injury	-11.2515
▁zippo	-11.2516
rri	-11.2524
▁mommy	-11.2539
▁sells	-11.2539
▁anyways	-11.2541
▁chore	-11.2546
▁65	-11.2549
▁separately	-11.2552
▁angel	-11.2554
▁sport	-11.256
most	-11.2563
▁hardwood	-11.2574
▁pricing	-11.2574
▁hurting	-11.2574
▁tracker	-11.2574
▁jumped	-11.2575
ddle	-11.2576
▁ya	-11.2578
▁pineapple	-11.2579
▁drier	-11.258
fully	-11.2582
▁custom	-11.2583
▁groomer	-11.2584
press	-11.2585
▁powdered	-11.2593
▁convert	-11.26
▁wrinkle	-11.2602
▁joy	-11.2609
aging	-11.2611
smell	-11.2615
▁lactose	-11.2619
▁forth	-11.262
▁familiar	-11.2622
▁bat	-11.2624
▁cutter	-11.2627
▁shared	-11.2629
▁false	-11.2633
▁south	-11.264
▁impact	-11.2644
▁mass	-11.2649
▁lap	-11.2649
▁shield	-11.265
▁lacking	-11.2652
▁matched	-11.2655
▁poured	-11.2656
tip	-11.2656
cious	-11.2663
▁quarter	-11.2665
▁opposite	-11.2668
▁progress	-11.2668
▁hardware	-11.2671
▁linger	-11.2674
▁spilled	-11.268
-3	-11.2686
▁toothbrushes	-11.2691
bra	-11.2691
▁matching	-11.2693
▁adopted	-11.27
▁struggling	-11.2708
▁element	-11.2708
▁uti	-11.2712
hon	-11.2713
▁paris	-11.2721
▁mc	-11.2729
baby	-11.2731
▁lays	-11.2732
▁ugly	-11.2741
▁consuming	-11.2749
▁hairspray	-11.2749
wise	-11.2753
▁voxbox	-11.2755
▁assembled	-11.2755
▁safer	-11.2755
▁direct	-11.2763
▁veg	-11.2766
lk	-11.2769
▁rear	-11.2772
ran	-11.2776
▁deserve	-11.2779
▁record	-11.2785
▁mustard	-11.2786
▁authentic	-11.2787
▁locks	-11.2792
▁lining	-11.2797
▁serves	-11.2798
▁rolled	-11.2802
▁everybody	-11.2802
while	-11.2806
▁hundred	-11.2807
▁shavers	-11.2807
▁maximum	-11.2809
▁distinct	-11.2809
▁stuffing	-11.281
▁maneuver	-11.2812
▁discontinue	-11.2812
▁constructed	-11.2815
▁safely	-11.2822
▁softest	-11.2825
▁faint	-11.2831
▁distance	-11.2837
▁nausea	-11.2837
▁signs	-11.2852
dog	-11.2857
▁produced	-11.2873
▁agent	-11.2879
ach	-11.2879
lar	-11.2886
▁plaque	-11.2892
qua	-11.2893
▁sheds	-11.2896
▁cakey	-11.2897
▁minerals	-11.2903
▁laid	-11.2904
▁porch	-11.2908
▁eyelashes	-11.2911
ole	-11.2911
nu	-11.2912
▁pushing	-11.2912
▁unnecessary	-11.2914
14	-11.2921
▁tightly	-11.2939
▁heavily	-11.2939
▁que	-11.2941
▁street	-11.2942
▁umbilical	-11.2944
▁soaking	-11.2949
▁nutty	-11.295
▁dented	-11.295
▁bandaid	-11.2952
▁automatically	-11.2953
ular	-11.2954
▁remington	-11.2956
▁holidays	-11.2956
▁fu	-11.2957
▁border	-11.2967
▁crying	-11.2975
edit	-11.299
▁dachshund	-11.2992
▁sprayer	-11.3001
▁lake	-11.3004
▁wakes	-11.3019
▁lash	-11.3021
▁clogged	-11.3023
▁feather	-11.3025
▁sooooo	-11.3029
▁offering	-11.3031
▁husky	-11.3034
▁pouring	-11.3039
▁cartridge	-11.3039
▁suddenly	-11.3047
▁nicks	-11.3048
▁pairs	-11.305
zing	-11.3051
▁hum	-11.3055
▁stool	-11.3061
ities	-11.3066
▁bitterness	-11.3075
▁blown	-11.3077
▁cooler	-11.3078
▁buttons	-11.3079
fusion	-11.308
then	-11.308
▁juicy	-11.3082
▁ignore	-11.3082
▁elf	-11.3082
▁raisin	-11.3086
▁hy	-11.309
▁installation	-11.3091
▁lowest	-11.3099
▁bur	-11.3101
▁buds	-11.3104
▁alert	-11.3111
lip	-11.3113
▁cheddar	-11.3113
about	-11.3114
▁exposed	-11.3118
▁scoops	-11.3119
▁loosen	-11.312
▁radiant	-11.3121
▁lathered	-11.3122
▁intact	-11.3125
▁campaign	-11.3127
▁teenager	-11.3128
char	-11.3135
▁32	-11.3135
▁hairdresser	-11.3135
▁oxi	-11.3141
▁smear	-11.3144
style	-11.3149
▁float	-11.3159
▁yuck	-11.3169
▁chase	-11.3175
▁versus	-11.3181
brush	-11.3181
▁carries	-11.3183
▁pits	-11.3184
▁student	-11.3186
▁upside	-11.3188
because	-11.3196
ji	-11.3196
▁reviewing	-11.3197
though	-11.3203
▁complained	-11.3204
▁stroke	-11.3206
▁aches	-11.3213
▁carton	-11.3224
▁tums	-11.3227
▁shih	-11.3233
hold	-11.3238
▁gag	-11.3239
▁pile	-11.3246
▁hey	-11.325
▁outdoors	-11.3254
▁freshly	-11.3256
▁meow	-11.3259
▁addictive	-11.3264
▁noticing	-11.3265
how	-11.3266
▁changer	-11.3269
▁youngest	-11.3274
▁cravings	-11.3278
▁waterpik	-11.3295
vy	-11.3295
▁snuggle	-11.3298
▁2.5	-11.3299
▁lice	-11.3307
▁gf	-11.331
ker	-11.331
▁unusual	-11.3313
▁conair	-11.3322
ray	-11.3329
▁owners	-11.333
▁intend	-11.333
▁waves	-11.3331
fer	-11.3333
▁glowing	-11.3335
▁bare	-11.3335
▁whisk	-11.3337
pros	-11.3337
▁solve	-11.3339
▁sparkle	-11.3341
▁23	-11.3344
▁fading	-11.3345
▁flight	-11.3364
milk	-11.3368
▁checking	-11.3374
lum	-11.3377
▁oldest	-11.3377
▁thumb	-11.3384
▁complex	-11.3386
▁experiencing	-11.3387
▁automatic	-11.3396
quil	-11.3399
▁frustrated	-11.3399
▁gotta	-11.34
from	-11.3401
▁hug	-11.3401
▁clumpy	-11.3403
gged	-11.3407
▁braces	-11.3409
▁fra	-11.3411
▁goal	-11.3415
▁recover	-11.3416
▁kleenex	-11.3422
▁seven	-11.3423
berry	-11.3423
▁smallest	-11.3429
gn	-11.3448
▁portions	-11.345
fy	-11.3452
▁cloud	-11.3452
oid	-11.3455
▁nope	-11.3456
▁genius	-11.3457
▁vendor	-11.3466
soft	-11.3466
▁indicate	-11.3471
▁loaded	-11.3475
▁manufacture	-11.3478
▁bust	-11.3494
▁earl	-11.3496
▁crumble	-11.3499
▁occur	-11.3501
▁claimed	-11.3502
▁steal	-11.3503
▁acceptable	-11.3504
▁capacity	-11.3504
za	-11.3506
▁gut	-11.3511
▁grapefruit	-11.3513
bble	-11.3513
step	-11.3515
▁sufficient	-11.3516
▁darn	-11.3517
▁devices	-11.3519
▁blemishes	-11.352
▁fallen	-11.3524
▁department	-11.3528
▁limp	-11.353
▁nick	-11.3531
▁labeled	-11.3533
▁complaining	-11.3536
▁aaa	-11.3543
▁random	-11.3547
▁colic	-11.3548
▁lipsticks	-11.3553
▁gal	-11.3557
▁vehicle	-11.3557
qu	-11.3562
▁glossy	-11.3571
▁hrs	-11.3579
▁beagle	-11.3584
▁creating	-11.3585
▁notch	-11.3599
▁dial	-11.3606
▁360	-11.3606
works	-11.3608
▁stream	-11.361
▁happening	-11.3614
▁jet	-11.3615
yo	-11.3622
▁cleanup	-11.363
▁ocean	-11.3634
▁tossed	-11.3636
▁spout	-11.364
▁title	-11.3643
▁equally	-11.3651
▁crush	-11.3651
▁driving	-11.3652
▁watermelon	-11.3652
▁qunol	-11.3658
▁soaks	-11.3659
▁soggy	-11.3662
▁majority	-11.3662
▁knob	-11.367
▁scratched	-11.3671
▁loreal	-11.3673
▁exc	-11.3678
▁slipping	-11.3682
▁chow	-11.3687
▁opt	-11.3695
▁pressed	-11.3697
▁plum	-11.3698
▁stash	-11.3701
greasy	-11.3701
illa	-11.3705
▁cow	-11.3707
▁harnesses	-11.3715
▁detangle	-11.3717
▁gmo	-11.3718
oil	-11.3718
▁manner	-11.3723
case	-11.3725
ale	-11.3732
wn	-11.3733
▁condo	-11.3741
▁pacs	-11.3743
mmer	-11.3751
▁keen	-11.376
▁grandma	-11.3762
▁trap	-11.3764
using	-11.3765
ado	-11.377
▁newer	-11.377
▁fitness	-11.3773
▁hat	-11.3776
▁reducing	-11.3778
▁dent	-11.3781
▁breakout	-11.3784
▁electronic	-11.379
▁unsweetened	-11.3796
▁prompt	-11.3798
▁slices	-11.3799
food	-11.3807
ob	-11.3809
▁divine	-11.3811
▁moisturiser	-11.3813
▁tra	-11.3817
▁onions	-11.382
since	-11.3825
▁arrival	-11.3833
ung	-11.3833
▁36	-11.3834
▁synthetic	-11.3842
▁formulation	-11.3845
▁wished	-11.3862
quality	-11.3864
▁eliminates	-11.3865
▁lit	-11.3868
!!!!!!!!	-11.3869
▁pudding	-11.3872
▁groom	-11.3888
▁absorbant	-11.3895
▁jaw	-11.3898
elle	-11.3904
▁fishy	-11.3904
▁satisfy	-11.3905
▁stew	-11.3908
▁peas	-11.3909
▁copper	-11.3911
▁file	-11.3912
▁necessarily	-11.3921
▁hairdryer	-11.3921
▁knife	-11.3927
▁squish	-11.3928
▁pecan	-11.3934
▁bolt	-11.3937
▁crease	-11.3937
look	-11.3942
▁touching	-11.3945
▁reservoir	-11.3952
▁rings	-11.3955
▁squeaky	-11.3958
▁hinge	-11.3958
▁yay	-11.3961
▁tremendously	-11.3964
▁neighbor	-11.3967
▁security	-11.3967
▁assumed	-11.3971
▁pitch	-11.3976
▁gran	-11.3977
▁candles	-11.3985
▁rested	-11.3991
▁cancel	-11.3992
▁mud	-11.3993
▁desperate	-11.3995
▁concentrated	-11.4013
▁attract	-11.402
▁users	-11.4021
▁internet	-11.4023
▁address	-11.4023
▁april	-11.4023
keep	-11.4023
sweet	-11.4025
▁fluff	-11.4031
▁written	-11.4038
▁grill	-11.404
▁canister	-11.4045
every	-11.4048
men	-11.405
still	-11.4058
▁teenage	-11.4059
green	-11.4063
▁scentsitive	-11.4067
▁decrease	-11.4072
▁flare	-11.4079
▁pushed	-11.4092
shave	-11.41
▁scrap	-11.4101
▁sharpen	-11.4106
ising	-11.4107
▁camp	-11.4108
▁petite	-11.4111
room	-11.4114
▁rewards	-11.4117
▁anybody	-11.4118
gar	-11.4121
▁luvs	-11.4124
add	-11.4127
▁reduces	-11.4134
▁collapse	-11.4135
▁played	-11.4136
▁duracell	-11.4138
▁soapy	-11.4138
▁loo	-11.4141
▁migraine	-11.4141
▁4-5	-11.4141
▁fraction	-11.4141
amazon	-11.4144
▁maintenance	-11.4144
try	-11.4155
▁1000	-11.4158
gel	-11.4165
▁pretzel	-11.4169
▁unbiased	-11.4169
▁funky	-11.4169
▁tingle	-11.4174
▁tonic	-11.4175
▁plump	-11.4176
▁grandmother	-11.4179
▁shi	-11.418
▁candies	-11.4192
▁tropical	-11.4201
▁caf	-11.4206
▁cry	-11.4207
bal	-11.421
75	-11.4215
▁king	-11.4217
▁multivitamin	-11.422
▁seams	-11.4221
▁hype	-11.4229
▁benefiber	-11.4232
▁approximately	-11.4235
▁knocked	-11.4238
▁nursery	-11.4239
▁slice	-11.4241
▁reuse	-11.4241
▁deoderant	-11.4248
zy	-11.4249
▁dresser	-11.4249
▁crystal	-11.4256
▁hence	-11.4257
white	-11.4262
▁approved	-11.4269
▁barrier	-11.427
▁chapped	-11.4271
▁elbows	-11.4272
▁performs	-11.428
▁flower	-11.4282
▁dab	-11.4283
▁marked	-11.4288
▁wig	-11.4293
▁diagnosed	-11.4295
best	-11.4301
▁pins	-11.4304
▁clasp	-11.4306
▁reminded	-11.4307
▁vest	-11.4312
▁operate	-11.4315
shed	-11.4319
▁reduction	-11.4321
body	-11.4327
▁strawberries	-11.4327
▁stood	-11.4328
▁assist	-11.4328
▁stone	-11.4329
▁21	-11.433
▁equivalent	-11.4331
▁perfection	-11.4332
▁deter	-11.4334
bur	-11.4336
▁prescribed	-11.4337
part	-11.4337
▁mice	-11.434
▁quest	-11.4343
▁drowsy	-11.4343
▁grabbed	-11.4347
▁sugary	-11.4357
▁carrots	-11.436
▁herbs	-11.4364
▁shredded	-11.4366
was	-11.4368
▁virtually	-11.4369
▁claws	-11.4372
.........	-11.4375
▁building	-11.4376
▁diva	-11.438
▁waxing	-11.4389
▁staining	-11.4397
▁million	-11.4398
▁3/4	-11.4401
▁protective	-11.4402
▁popping	-11.4411
ently	-11.4412
pac	-11.4415
▁primarily	-11.4417
▁nescafe	-11.4422
▁guessing	-11.4423
▁unusable	-11.4423
▁clo	-11.4426
▁dang	-11.4427
▁depth	-11.4436
▁crystals	-11.4438
13	-11.444
▁hiking	-11.4441
break	-11.4451
▁hue	-11.4452
ification	-11.4461
▁holy	-11.4467
▁weighing	-11.4469
▁profile	-11.4478
▁lifestyle	-11.4481
▁city	-11.4482
▁rocks	-11.4482
▁sweetened	-11.4483
▁ty	-11.449
▁sex	-11.4492
▁produces	-11.4499
▁2018	-11.4501
▁advise	-11.4508
▁starter	-11.4514
▁shelter	-11.4514
lasting	-11.4521
▁silly	-11.4525
▁grainy	-11.4525
grown	-11.4536
▁ratio	-11.4544
▁meets	-11.4549
▁welcome	-11.455
▁connection	-11.4551
▁protecting	-11.4557
▁rag	-11.4557
▁sliced	-11.4559
▁fleece	-11.4566
▁blind	-11.4566
▁28	-11.4566
▁snoring	-11.4569
▁pla	-11.4574
▁stretchy	-11.4574
▁cubes	-11.4575
▁exceptional	-11.4577
▁shrink	-11.4583
▁competitors	-11.4583
istic	-11.4584
▁stupid	-11.4586
▁cafe	-11.4589
▁10/10	-11.4592
▁argan	-11.4593
▁wiped	-11.4595
▁wheelchair	-11.4596
ency	-11.46
▁coloured	-11.461
▁object	-11.4615
▁fro	-11.4622
▁fizz	-11.4623
▁breathing	-11.4625
▁lemonade	-11.4632
friendly	-11.4641
▁cents	-11.4644
▁mile	-11.4644
▁forming	-11.4645
▁nasal	-11.4652
▁relieved	-11.4655
▁mam	-11.4665
▁exist	-11.4666
▁flossing	-11.4668
eth	-11.4671
▁whim	-11.4672
lab	-11.4672
ref	-11.4672
▁supple	-11.4677
▁spilling	-11.4678
▁nit	-11.4682
▁ray	-11.4684
▁afterward	-11.4686
last	-11.4689
eek	-11.4691
▁neighbors	-11.4691
▁fortunately	-11.47
bor	-11.4706
▁terr	-11.4713
▁mega	-11.4715
▁1/3	-11.4718
▁crash	-11.4727
touch	-11.4727
ken	-11.473
▁detox	-11.4734
▁sleepy	-11.4737
▁anxious	-11.4737
▁vomit	-11.4738
17	-11.4738
▁avocado	-11.4761
▁55	-11.4761
▁swirl	-11.4762
▁swiffer	-11.4767
▁combine	-11.4779
▁nutri	-11.4779
▁heels	-11.4802
▁conditioned	-11.4806
▁survive	-11.4808
▁believer	-11.4814
▁decades	-11.4819
▁heavenly	-11.482
▁dilute	-11.4821
▁sweeter	-11.4823
▁fave	-11.4824
▁performed	-11.4828
ease	-11.4829
timate	-11.4829
▁chia	-11.4832
▁july	-11.4845
mmmm	-11.485
▁earplugs	-11.4851
▁posted	-11.4859
▁powdery	-11.4862
liner	-11.4864
▁beneficial	-11.4865
▁ripping	-11.4878
▁web	-11.4881
ko	-11.4888
▁caution	-11.4892
▁fades	-11.4899
highly	-11.4905
range	-11.4914
▁advertising	-11.4919
▁shin	-11.4919
▁linen	-11.4919
▁taco	-11.4921
▁differently	-11.4925
▁lovers	-11.4926
cul	-11.4933
clock	-11.4937
roll	-11.4938
▁plantar	-11.494
seal	-11.4941
▁uniform	-11.4949
▁preventing	-11.4951
▁account	-11.4953
▁sock	-11.496
▁touched	-11.4962
▁diff	-11.4963
-12	-11.4964
▁bru	-11.4972
▁tacky	-11.4973
▁regarding	-11.4974
▁sunburn	-11.4977
▁cucumber	-11.498
shirt	-11.498
▁biore	-11.498
▁lingers	-11.4993
rip	-11.4998
▁swallowing	-11.4998
▁thinning	-11.5004
cook	-11.5004
▁adapt	-11.5005
▁lingering	-11.5007
▁paired	-11.5009
▁align	-11.5011
▁properties	-11.5014
▁donut	-11.502
▁identical	-11.5028
▁sunday	-11.5028
▁garmin	-11.5031
please	-11.5042
izer	-11.5043
▁behavior	-11.5045
▁truth	-11.5045
▁gre	-11.5045
▁eyebrow	-11.5045
▁trainer	-11.5046
▁padded	-11.5048
70	-11.5049
▁tanning	-11.5049
▁sleeper	-11.505
▁camera	-11.505
▁confirm	-11.5051
▁fever	-11.5058
▁clients	-11.5059
▁mushy	-11.5067
▁google	-11.5076
▁instruction	-11.5076
▁bringing	-11.508
▁kotex	-11.5082
oon	-11.5087
brand	-11.5092
▁message	-11.5098
▁storing	-11.5104
▁locking	-11.5122
▁lens	-11.5127
▁stressful	-11.5137
▁sanitary	-11.5137
▁wrote	-11.5137
▁avail	-11.5139
▁snag	-11.5141
▁guest	-11.5154
▁remained	-11.5163
▁hyper	-11.5163
▁pimples	-11.5173
ifying	-11.5175
▁colorful	-11.5176
small	-11.5176
▁essence	-11.5179
▁sally	-11.5184
▁spaghetti	-11.5186
rac	-11.5199
▁latest	-11.5201
▁crumbs	-11.5205
▁delight	-11.521
▁zinc	-11.5224
▁tension	-11.5226
stay	-11.5226
▁master	-11.5233
▁placing	-11.5235
hal	-11.5235
▁rapid	-11.5238
▁rack	-11.5239
gger	-11.5246
▁creatine	-11.5256
▁kiss	-11.5263
▁converted	-11.5263
any	-11.5266
note	-11.5276
flu	-11.528
▁bathtub	-11.528
▁blond	-11.5293
unch	-11.5294
▁nowhere	-11.5296
▁connected	-11.5299
▁prep	-11.5307
▁deeper	-11.5311
▁sight	-11.5314
▁reset	-11.5314
▁request	-11.5316
buy	-11.5317
▁veggie	-11.532
▁gained	-11.5328
vin	-11.5331
▁curtains	-11.5332
▁platform	-11.5333
▁nourishing	-11.534
▁zone	-11.5342
ulation	-11.5343
▁120	-11.5344
▁envelope	-11.5351
▁worthless	-11.5351
▁sometime	-11.5352
▁nephew	-11.5354
▁gar	-11.5366
▁drill	-11.5369
▁van	-11.5369
perfect	-11.5372
ana	-11.5375
▁dissolved	-11.5379
▁substance	-11.5379
▁thicken	-11.5382
▁boiling	-11.5386
▁specially	-11.5388
▁waffle	-11.539
▁stools	-11.5396
▁underarm	-11.5399
▁hygiene	-11.54
▁confused	-11.5407
▁locate	-11.5409
feel	-11.5412
▁hello	-11.5422
sponsored	-11.5425
▁eyeshadow	-11.5429
▁costly	-11.5429
▁tech	-11.543
real	-11.5438
▁expert	-11.544
▁wherever	-11.5442
▁whistle	-11.5443
▁advertise	-11.5445
▁climate	-11.5447
▁dramatic	-11.545
▁addict	-11.5451
▁foster	-11.5452
▁daytime	-11.5456
▁thermometer	-11.5457
▁grime	-11.5457
▁hemp	-11.546
▁hike	-11.546
▁bolster	-11.5472
▁separated	-11.5478
▁collie	-11.5482
▁statin	-11.5492
▁outfit	-11.55
▁2017	-11.5503
▁conscious	-11.5504
ject	-11.5507
▁tuck	-11.551
▁reflect	-11.5514
▁nude	-11.5516
▁enzyme	-11.5518
▁minimize	-11.5519
▁aussie	-11.5522
▁blending	-11.5524
▁ceiling	-11.5529
www	-11.5533
▁advance	-11.5546
first	-11.5547
▁gunk	-11.5554
▁settled	-11.5559
ache	-11.5569
▁craft	-11.5569
▁snapped	-11.5571
▁scr	-11.5576
▁barrel	-11.5576
▁cranberry	-11.5579
▁duck	-11.5581
▁toasted	-11.5581
▁regard	-11.5584
▁preservatives	-11.5594
▁outlet	-11.5605
▁tzu	-11.5609
influenster	-11.562
▁swelling	-11.5624
▁tanner	-11.5624
nice	-11.5628
▁haircut	-11.563
▁accuracy	-11.563
▁guilty	-11.5631
▁buen	-11.5635
cept	-11.5636
▁velvet	-11.5641
▁tang	-11.5647
▁grandchildren	-11.5648
▁passes	-11.5649
▁jug	-11.5651
▁batter	-11.5651
▁500	-11.5655
▁ziploc	-11.5656
pound	-11.5658
▁chapstick	-11.5663
▁waitrose	-11.5674
▁comparing	-11.5674
gotitfree	-11.5674
ense	-11.5677
▁bike	-11.5678
▁stem	-11.5679
▁cable	-11.5681
▁ordinary	-11.5685
flex	-11.5686
▁bathing	-11.5688
▁shoot	-11.5689
2)	-11.5697
▁tinted	-11.57
▁blast	-11.5714
▁pediatrician	-11.5714
▁healed	-11.5716
▁shaker	-11.572
▁complement	-11.5728
▁wooden	-11.5737
▁downfall	-11.5743
▁breakage	-11.5749
▁genie	-11.5756
▁taller	-11.5758
▁gentlease	-11.5758
▁hub	-11.5766
▁decade	-11.577
▁largest	-11.5774
▁scott	-11.5777
▁doggy	-11.578
▁gear	-11.5784
▁bzz	-11.5786
▁eager	-11.5791
▁tangle	-11.5794
▁alter	-11.5796
▁code	-11.5797
hol	-11.5798
face	-11.5802
▁researched	-11.5804
▁forced	-11.5809
▁201	-11.5809
medium	-11.5823
inch	-11.5824
▁dia	-11.5836
▁particles	-11.5851
▁den	-11.586
▁environmentally	-11.5864
price	-11.5866
lac	-11.5869
▁prop	-11.5872
▁unwanted	-11.588
ome	-11.588
▁rabbit	-11.5884
▁precision	-11.5891
really	-11.5893
▁fitted	-11.5894
▁lunches	-11.5896
▁raise	-11.5907
▁pole	-11.591
▁grit	-11.5913
oper	-11.5915
▁refer	-11.5918
▁supplies	-11.5921
▁nightmare	-11.5921
print	-11.5922
▁potent	-11.5928
▁conjunction	-11.5929
▁crawling	-11.593
▁shortly	-11.5933
▁rotate	-11.5935
▁horribly	-11.5936
▁marketing	-11.5941
perspirant	-11.5943
▁folding	-11.5949
▁longest	-11.5956
▁define	-11.5956
regular	-11.596
▁watched	-11.5965
▁resolve	-11.5974
▁credit	-11.5974
▁containing	-11.5975
▁resealable	-11.5978
▁epilator	-11.5985
▁hung	-11.5993
▁micellar	-11.5993
▁incandescent	-11.6
▁revlon	-11.6
▁backup	-11.6012
▁core	-11.6017
▁proud	-11.6018
▁pore	-11.6026
▁furry	-11.6044
▁chemically	-11.6044
▁trace	-11.6058
▁upright	-11.6064
▁ambi	-11.6067
▁assortment	-11.6068
▁interior	-11.6076
▁jeans	-11.6076
▁brightness	-11.6076
▁whereas	-11.6079
▁elegant	-11.6091
▁europe	-11.6099
▁chilli	-11.6104
▁halfway	-11.6107
▁tighter	-11.611
▁breastfed	-11.6114
▁concealing	-11.6115
▁noodle	-11.6116
▁soundly	-11.6121
▁childhood	-11.6122
▁squeez	-11.6131
▁grinder	-11.6138
▁flying	-11.6141
▁chopped	-11.6146
▁sag	-11.6147
▁relative	-11.6152
▁gooey	-11.6156
▁fillers	-11.6159
▁competitive	-11.616
▁nourished	-11.6164
▁crawl	-11.6167
▁adjusting	-11.6167
▁cola	-11.617
▁reference	-11.6172
▁wick	-11.6172
▁desert	-11.6175
▁edible	-11.6175
▁antibiotics	-11.6179
▁texas	-11.6183
▁bb	-11.6183
▁blowouts	-11.6184
▁smiley	-11.6186
▁85	-11.6186
▁mellow	-11.6187
rap	-11.6191
▁rounded	-11.6191
/201	-11.6193
▁quinoa	-11.6194
▁data	-11.6199
▁rim	-11.6203
▁eliminated	-11.6209
▁tract	-11.621
▁percent	-11.6216
▁unexpected	-11.6217
biotic	-11.622
▁continuing	-11.6221
▁related	-11.6233
meter	-11.6236
▁chop	-11.6239
▁bouncy	-11.6241
▁thighs	-11.6259
▁march	-11.6259
▁renew	-11.6262
▁catching	-11.6271
▁dependable	-11.6275
▁trimmed	-11.6278
▁straightening	-11.629
ature	-11.6297
▁assuming	-11.6299
▁steady	-11.6303
▁bald	-11.6307
▁smoothness	-11.6315
▁cacao	-11.6318
▁hunger	-11.6319
▁doorway	-11.6319
▁costume	-11.6322
▁mama	-11.6324
▁germ	-11.6327
▁cheer	-11.6328
▁cosmetic	-11.633
▁quilted	-11.6338
▁defined	-11.634
non	-11.6342
▁surround	-11.6349
▁dining	-11.6352
▁panic	-11.6353
▁kettle	-11.6361
▁tomorrow	-11.6361
▁reaching	-11.6362
▁upstairs	-11.6365
▁anticipated	-11.6365
▁insane	-11.6371
▁bob	-11.6391
away	-11.6391
fast	-11.6401
▁qui	-11.6406
▁rope	-11.6408
▁closely	-11.6409
▁protector	-11.6414
house	-11.6418
▁2016	-11.6419
▁bored	-11.642
▁temporary	-11.642
state	-11.642
▁additionally	-11.6423
▁bloating	-11.6429
▁whip	-11.6431
▁cooker	-11.6432
▁deo	-11.6432
▁failure	-11.6432
plus	-11.6435
▁fasten	-11.6436
▁warming	-11.6443
▁spider	-11.6455
▁pigment	-11.6456
▁locked	-11.6456
▁whose	-11.6458
▁diminish	-11.6459
▁outcome	-11.6468
▁scrubber	-11.6476
▁equipment	-11.6479
▁lounge	-11.6479
▁closure	-11.6483
▁filets	-11.6485
▁families	-11.6487
▁choc	-11.6487
cher	-11.6506
▁distract	-11.6507
▁defeat	-11.6508
▁ste	-11.651
normal	-11.6512
▁squeegee	-11.6515
▁slot	-11.6521
▁rise	-11.6523
▁thai	-11.6529
▁restrict	-11.6531
▁dimensions	-11.6541
▁thirst	-11.6542
▁usable	-11.6552
▁claw	-11.6553
▁eos	-11.6554
▁yoghurt	-11.6562
▁therapist	-11.6562
▁brake	-11.6563
▁hd	-11.6566
▁26	-11.6571
▁suited	-11.6571
▁field	-11.6574
▁component	-11.659
▁supportive	-11.6591
▁pickle	-11.6593
▁remembered	-11.6595
▁warmth	-11.6604
▁alternate	-11.661
▁encounter	-11.6618
▁visiting	-11.6621
▁coworker	-11.6622
▁blackheads	-11.6622
▁iams	-11.6627
▁lying	-11.6634
▁approach	-11.6638
▁rad	-11.6639
▁restore	-11.6644
▁cider	-11.6655
lol	-11.6659
bag	-11.6661
▁expire	-11.6663
▁factory	-11.6665
▁faithful	-11.6669
rating	-11.667
▁background	-11.6671
▁community	-11.6671
▁tendency	-11.6672
▁devoured	-11.6675
▁tingling	-11.6675
▁dripping	-11.6677
▁recall	-11.6681
▁tennis	-11.6683
▁battle	-11.6683
▁sturdier	-11.6687
▁boring	-11.6698
▁cling	-11.6701
▁denture	-11.6703
▁quilt	-11.6708
▁maltese	-11.6711
▁acidic	-11.6712
mix	-11.6715
▁foaming	-11.6717
▁halloween	-11.6723
▁brief	-11.6732
week	-11.6734
▁lite	-11.6751
▁casserole	-11.6756
▁consist	-11.6757
▁john	-11.6759
cover	-11.6769
▁sceptical	-11.678
▁smoked	-11.6781
▁letter	-11.6782
▁handling	-11.6784
fill	-11.6785
▁quaker	-11.6793
little	-11.6795
▁study	-11.6796
▁reluctant	-11.68
▁alexa	-11.68
▁lamb	-11.6801
▁stability	-11.6803
▁adapter	-11.6807
▁joe	-11.6811
▁hellmann	-11.6832
▁ser	-11.6833
▁appliance	-11.6833
▁defect	-11.6837
▁boat	-11.6842
▁shaking	-11.6843
▁ointment	-11.6845
▁longevity	-11.685
▁surge	-11.6857
▁damaging	-11.6862
▁dropping	-11.6862
24	-11.6869
▁thorough	-11.6871
▁concentrate	-11.6871
▁organize	-11.6871
▁nobody	-11.6872
▁blossom	-11.6874
▁prenatal	-11.6874
▁phenomenal	-11.6878
▁bon	-11.6879
▁unbelievable	-11.6882
▁intensity	-11.6891
▁kidney	-11.6891
▁definetly	-11.6891
gmo	-11.6892
▁resort	-11.6903
▁inferior	-11.6907
▁phillips	-11.6915
▁laser	-11.6917
▁appointment	-11.6924
▁bummer	-11.6924
▁liter	-11.6926
▁refrigerated	-11.6932
▁compost	-11.6932
▁choking	-11.6937
▁amino	-11.6941
▁warned	-11.6951
▁fatty	-11.6954
ade	-11.6956
once	-11.696
▁cordless	-11.6961
▁judge	-11.6961
▁facing	-11.6962
▁surprising	-11.6983
▁infallible	-11.699
lite	-11.6991
▁carbon	-11.7002
▁hood	-11.7002
▁chunk	-11.7008
▁chinese	-11.7016
▁orthopedic	-11.7019
▁spitting	-11.702
▁urge	-11.702
▁kernels	-11.7028
▁vibrate	-11.7044
▁reached	-11.7045
▁hammer	-11.7045
▁hypoallergenic	-11.7049
▁warehouse	-11.7049
▁sal	-11.7052
▁partially	-11.7057
▁california	-11.7061
▁sharing	-11.7063
▁constipated	-11.7065
▁differ	-11.7066
▁pinesol	-11.7067
run	-11.7068
▁gla	-11.707
▁licking	-11.7086
▁manufacturing	-11.7091
▁flexball	-11.7091
▁flashes	-11.7092
▁glo	-11.7094
corn	-11.7098
▁retailer	-11.7098
▁scratchy	-11.7104
▁milkshake	-11.7107
▁pulse	-11.7112
▁biodegradable	-11.7137
▁agreed	-11.7143
▁bummed	-11.7146
▁essentially	-11.7147
▁muy	-11.7156
▁distribute	-11.7166
▁curb	-11.717
▁luxury	-11.7171
▁dual	-11.7172
▁acting	-11.7174
▁stripe	-11.7175
▁basement	-11.718
▁sweeten	-11.7182
▁stopping	-11.7183
▁royal	-11.7184
▁spinach	-11.7184
▁blowing	-11.7185
▁flaking	-11.7188
▁lesson	-11.7199
▁pig	-11.7202
ulate	-11.7205
▁lifetime	-11.7206
▁buildup	-11.7208
▁2015	-11.7211
▁lipton	-11.7218
poo	-11.7222
▁appeal	-11.7227
▁flatten	-11.7227
▁diabetes	-11.723
▁buff	-11.7238
▁mosquito	-11.7239
▁combat	-11.7247
easing	-11.725
▁competition	-11.7256
▁stepped	-11.7256
high	-11.7257
▁cracker	-11.726
▁perch	-11.726
▁stitching	-11.7273
▁register	-11.7277
▁hall	-11.7278
▁accessories	-11.7282
▁magical	-11.7282
▁pace	-11.7289
▁boston	-11.7294
▁walnut	-11.7295
▁sustain	-11.7303
▁pricy	-11.7308
boo	-11.7308
▁150	-11.7309
▁involved	-11.7317
▁crave	-11.7318
▁ugh	-11.7322
▁ridiculously	-11.7332
▁tossing	-11.7338
▁guilt	-11.7346
▁mccormick	-11.735
▁expense	-11.7351
▁tug	-11.7354
▁pb	-11.7359
▁blueberries	-11.7359
▁overbearing	-11.7359
▁dash	-11.7361
▁chosen	-11.7362
take	-11.7371
▁incontinence	-11.7372
▁article	-11.7381
▁congestion	-11.7389
▁parabens	-11.7389
▁dissapointed	-11.739
▁hopeful	-11.739
▁beep	-11.7393
▁proved	-11.7407
▁insomnia	-11.7415
▁promote	-11.742
▁december	-11.7424
▁resist	-11.7427
▁fragile	-11.7428
▁iphone	-11.7428
▁runner	-11.7431
▁june	-11.7448
▁choosing	-11.7459
▁yucky	-11.746
▁decreased	-11.7463
▁detach	-11.7468
▁mobile	-11.7472
▁cracking	-11.7476
▁nespresso	-11.7481
rated	-11.7483
▁advised	-11.7502
45	-11.7506
▁primary	-11.7507
▁dewy	-11.7507
safe	-11.7517
hour	-11.753
▁shall	-11.7531
▁wiggle	-11.7538
▁dipping	-11.7543
▁panty	-11.7544
▁pate	-11.7549
▁brassy	-11.7551
▁feline	-11.7558
35	-11.7562
▁daycare	-11.7564
▁drown	-11.7564
▁hound	-11.7567
▁tower	-11.7571
ancy	-11.7576
▁alleviate	-11.7577
▁bullet	-11.7579
▁pastry	-11.7586
▁continuous	-11.7592
▁climbing	-11.7593
▁bran	-11.7597
▁requested	-11.7598
▁debris	-11.7599
▁indicated	-11.7601
▁tangy	-11.7603
▁january	-11.7613
▁technique	-11.7613
▁considerably	-11.7614
▁epi	-11.7617
▁curled	-11.7619
▁desire	-11.7624
had	-11.7624
▁updated	-11.7633
super	-11.764
▁cube	-11.7642
▁trimstyle	-11.7644
▁delish	-11.7651
need	-11.7653
▁prong	-11.7667
▁cheek	-11.7672
▁wedge	-11.7679
▁blew	-11.7679
▁avid	-11.7682
▁hesitation	-11.7688
▁bout	-11.769
▁restroom	-11.769
think	-11.7695
▁greek	-11.7702
▁oat	-11.7709
▁nivea	-11.771
▁fasciitis	-11.7715
▁yarn	-11.772
power	-11.7722
▁gobble	-11.7727
▁cigarette	-11.7729
▁aggressive	-11.7733
▁increasing	-11.7733
▁embarrassed	-11.7737
▁slightest	-11.7739
wear	-11.7746
▁strict	-11.7746
hard	-11.7749
sorb	-11.7753
▁dispose	-11.776
▁respect	-11.7769
▁3.5	-11.777
▁wobbly	-11.7773
▁supplier	-11.7782
▁closing	-11.7783
▁playtex	-11.7787
▁irish	-11.7789
▁ripe	-11.7792
▁sum	-11.7794
????	-11.7795
▁former	-11.78
▁overpower	-11.78
▁facilitate	-11.7805
▁barber	-11.7807
claim	-11.781
▁brick	-11.7811
▁eneloop	-11.7818
oodle	-11.7823
▁virgin	-11.7823
▁confusing	-11.7828
▁repurchasing	-11.7832
sensitive	-11.7836
▁collagen	-11.7841
▁fuzzy	-11.7842
▁grandkids	-11.785
bri	-11.7854
▁frankly	-11.7854
ounce	-11.7856
▁miniature	-11.7864
hhh	-11.7867
effective	-11.7868
▁realise	-11.7869
▁fourth	-11.788
▁excelente	-11.789
▁pancake	-11.7897
▁strengthen	-11.7899
▁nexxus	-11.7914
▁excel	-11.7916
▁rancid	-11.7923
▁death	-11.7923
▁readily	-11.7924
▁countertop	-11.7925
▁functionality	-11.7925
▁drinkwell	-11.7927
▁firmer	-11.7928
▁cappuccino	-11.7937
fine	-11.7944
▁mashed	-11.7956
▁breathable	-11.7963
▁complicated	-11.7964
▁northern	-11.7964
▁effortlessly	-11.7973
▁viva	-11.7977
▁aromatic	-11.7979
▁severely	-11.7982
▁btw	-11.7984
▁broad	-11.7987
▁nylon	-11.7996
▁maine	-11.7998
▁teach	-11.8002
▁splenda	-11.8006
▁roughly	-11.8011
▁adverse	-11.8015
▁transform	-11.8015
▁bronzer	-11.8015
▁catches	-11.8015
omb	-11.8018
▁eyelid	-11.8024
cia	-11.8025
▁licorice	-11.8029
ggy	-11.8043
▁gripe	-11.8044
▁swivel	-11.8052
▁bending	-11.8057
▁friday	-11.8062
▁neighborhood	-11.807
▁saturated	-11.807
▁loaf	-11.807
▁span	-11.8082
▁accent	-11.8085
▁monster	-11.8085
▁coke	-11.8091
▁pear	-11.8093
▁curved	-11.8095
close	-11.8105
▁schnauzer	-11.8112
▁fog	-11.8118
▁competitor	-11.8126
▁suave	-11.8126
▁nerve	-11.8127
▁ultimately	-11.813
▁downstairs	-11.8131
▁preemie	-11.8131
ggle	-11.8135
▁shinier	-11.8136
▁broccoli	-11.814
▁tylenol	-11.814
▁necessity	-11.8145
▁leader	-11.8146
0.00	-11.8148
----	-11.8152
▁sudden	-11.8161
▁mobility	-11.8164
▁minus	-11.8167
▁sen	-11.8168
ional	-11.817
▁printed	-11.818
▁chewer	-11.819
▁fluoride	-11.8192
▁jasmine	-11.8192
▁tre	-11.8192
360	-11.8201
▁glu	-11.8203
▁pitbull	-11.8206
both	-11.8212
▁intolerant	-11.8215
▁swap	-11.8219
▁satin	-11.822
where	-11.8223
▁august	-11.8225
▁soiled	-11.8227
▁salsa	-11.8229
▁commit	-11.8234
▁sucker	-11.8245
book	-11.8254
▁spark	-11.8269
▁circle	-11.8274
▁remedy	-11.83
clar	-11.8301
▁furminator	-11.8305
▁patio	-11.8309
▁bank	-11.831
▁text	-11.8314
▁grilled	-11.8316
▁adhere	-11.8319
pad	-11.8325
://	-11.8329
▁rattle	-11.8333
▁sickness	-11.8334
▁polar	-11.8334
▁affected	-11.8336
▁rubbery	-11.8336
▁controlled	-11.8341
▁dusty	-11.8343
▁hammock	-11.8343
▁cheesy	-11.8353
▁accurately	-11.8356
big	-11.8358
http	-11.8358
worm	-11.8362
▁seasonal	-11.8365
▁bai	-11.8366
▁energetic	-11.8367
▁freezing	-11.8368
why	-11.8373
▁menstrual	-11.8376
▁represent	-11.8381
▁pesky	-11.8381
▁splint	-11.8381
aaaa	-11.8386
fur	-11.8387
▁thyroid	-11.8405
▁rail	-11.8407
▁bodied	-11.8411
▁existing	-11.8419
does	-11.842
▁granted	-11.8426
▁flexibility	-11.8429
▁compromise	-11.8434
▁mould	-11.8434
▁pun	-11.8441
▁deck	-11.8443
▁inedible	-11.8444
▁hansen	-11.8448
▁demand	-11.8453
▁esp	-11.846
▁mag	-11.8481
▁sanitize	-11.8493
full	-11.8499
oooooo	-11.8509
▁blame	-11.8511
▁compress	-11.8515
▁cologne	-11.8516
▁vega	-11.852
▁chalk	-11.8522
▁measurement	-11.8523
▁frying	-11.8524
▁painless	-11.8536
▁compatible	-11.854
▁subject	-11.8541
▁efficiently	-11.8548
▁squeak	-11.8551
▁patchy	-11.8553
▁scary	-11.8554
▁buffalo	-11.8555
▁science	-11.856
▁diameter	-11.856
▁stickiness	-11.8562
▁rum	-11.8569
▁skippy	-11.8571
▁chamomile	-11.8574
▁gradually	-11.8577
▁rake	-11.8582
▁abuse	-11.8588
▁spectrum	-11.8589
▁cruelty	-11.8594
▁teacher	-11.8598
▁nine	-11.8601
▁ketchup	-11.8604
▁inflate	-11.861
▁eliminating	-11.8613
▁instructed	-11.8613
▁300	-11.8618
▁score	-11.862
▁pipe	-11.8623
fish	-11.8628
▁lubricant	-11.8633
▁gadget	-11.8638
▁complementary	-11.8639
▁miserable	-11.8643
▁spoonful	-11.8647
▁satisfaction	-11.8648
▁unscrew	-11.8648
▁chasing	-11.8654
ridge	-11.8654
pop	-11.8654
▁exceptionally	-11.8656
▁scooper	-11.8659
22	-11.866
▁flosser	-11.8661
▁fatigue	-11.8667
▁smashed	-11.8667
▁godsend	-11.8667
▁deva	-11.8668
▁energizer	-11.8677
▁dime	-11.8683
▁deli	-11.8689
▁north	-11.8692
eye	-11.8693
▁metallic	-11.87
▁brewer	-11.8703
type	-11.8706
vitamin	-11.8707
▁accommodate	-11.8707
▁poison	-11.8717
▁110	-11.8718
▁jitters	-11.8722
▁sesame	-11.8722
▁indulge	-11.8732
▁wool	-11.8735
▁vomiting	-11.8736
▁recomm	-11.874
▁aunt	-11.8752
▁highlighter	-11.8754
▁accomplish	-11.8756
▁cousin	-11.8759
▁hiding	-11.8763
▁precious	-11.8769
pick	-11.8769
▁unplug	-11.8771
▁bruise	-11.8778
200	-11.8779
▁luv	-11.8781
▁moisturised	-11.8782
▁uk	-11.8785
▁plunge	-11.8791
▁tolerable	-11.8791
▁fries	-11.8795
▁stair	-11.8801
burn	-11.8802
blue	-11.8807
▁warn	-11.8807
▁blessing	-11.8811
▁reordered	-11.8818
▁microfiber	-11.8821
▁bcaa	-11.8821
▁dance	-11.883
▁hitting	-11.8833
▁elevated	-11.8836
▁cuz	-11.8846
▁inspect	-11.8847
▁jerky	-11.8851
▁sunflower	-11.8851
lou	-11.8853
▁curtain	-11.8859
count	-11.8862
rise	-11.8867
▁curcumin	-11.8876
▁rotten	-11.8876
▁visual	-11.8876
▁flop	-11.8879
▁dressed	-11.888
calibrate	-11.8881
▁opted	-11.8889
▁arthritic	-11.8897
▁budge	-11.8898
bone	-11.89
▁ivory	-11.8902
▁mechanic	-11.8907
▁wasteful	-11.8908
▁recognize	-11.8912
looking	-11.8913
▁explode	-11.8922
▁rule	-11.8924
▁spaniel	-11.8932
▁african	-11.8937
▁meeting	-11.8941
▁saturday	-11.8942
▁route	-11.8959
▁operated	-11.8977
▁snob	-11.898
▁moisturising	-11.8982
▁hallway	-11.8983
kie	-11.8984
▁quantities	-11.8993
▁unhealthy	-11.8993
▁sco	-11.8995
store	-11.9003
▁certified	-11.9003
▁recyclable	-11.9003
▁emp	-11.9011
▁snore	-11.9016
▁boppy	-11.9023
▁successfully	-11.9031
▁shrimp	-11.9033
▁ergonomic	-11.9039
▁antioxidant	-11.9044
activ	-11.9054
▁cesar	-11.9054
▁canada	-11.9054
▁labrador	-11.9059
▁ramen	-11.906
▁quart	-11.906
▁hazard	-11.9064
▁withstand	-11.9064
▁shepard	-11.9069
definitely	-11.907
▁praise	-11.9074
▁attempted	-11.9075
organic	-11.9075
▁operation	-11.9079
gene	-11.909
▁cumbersome	-11.9105
▁history	-11.9105
▁deff	-11.9113
▁dishwashing	-11.9126
▁armpit	-11.9132
▁gelatin	-11.9132
▁camper	-11.9133
▁bundle	-11.9136
▁licked	-11.9142
▁associated	-11.9144
▁race	-11.9152
▁kidding	-11.9155
▁faulty	-11.9162
name	-11.9164
▁cherries	-11.9167
almost	-11.9168
▁perk	-11.917
▁mental	-11.9175
▁grate	-11.9175
mission	-11.9184
warm	-11.919
▁entry	-11.9199
▁feral	-11.921
▁fyi	-11.9211
▁abrasive	-11.9214
▁invention	-11.9219
▁pomegranate	-11.9224
▁400	-11.9227
▁activated	-11.9228
▁trend	-11.9236
▁ammonia	-11.9245
▁consumption	-11.9245
▁twenty	-11.9245
▁preserve	-11.9266
▁insist	-11.9267
▁moon	-11.928
▁reflective	-11.9283
dark	-11.9286
ization	-11.9287
▁mitt	-11.9295
▁coon	-11.9297
▁stripped	-11.9308
▁cautious	-11.9313
▁policy	-11.9313
▁internal	-11.9313
▁improving	-11.9318
▁variation	-11.9321
▁nicorette	-11.9324
▁repeatedly	-11.9329
▁disaster	-11.9334
▁sunblock	-11.9334
▁medicinal	-11.9339
▁inconvenient	-11.9345
▁receipt	-11.9345
▁grabbing	-11.9345
▁join	-11.9348
▁enamel	-11.935
hope	-11.9359
▁otc	-11.9361
?!?	-11.9362
▁poke	-11.9369
▁sachet	-11.9376
original	-11.939
▁overwhelm	-11.9392
▁mach	-11.9393
▁sparingly	-11.9397
zone	-11.9404
▁killing	-11.9406
▁regenerist	-11.9413
▁frosting	-11.9413
▁equate	-11.9419
▁eraser	-11.9419
▁hop	-11.9427
▁slipped	-11.9429
▁fructis	-11.9429
▁detangling	-11.9435
▁thi	-11.9439
▁successful	-11.9441
engineer	-11.9445
▁damn	-11.9446
▁leashes	-11.9447
▁annoyed	-11.9456
▁psoriasis	-11.9456
▁washcloth	-11.9467
▁purr	-11.9468
▁lever	-11.9485
ology	-11.9492
▁tunnel	-11.9499
▁exciting	-11.9499
▁controlling	-11.9504
▁exhaust	-11.9504
clear	-11.9514
▁tingly	-11.9515
▁bristle	-11.9516
zu	-11.9524
▁crumbly	-11.9525
▁numb	-11.9527
▁jittery	-11.9531
▁zzz	-11.9532
▁starch	-11.9533
▁fray	-11.9538
▁basil	-11.9542
▁reveal	-11.9542
▁earthy	-11.9545
▁unfortunate	-11.955
▁scare	-11.9552
▁spoil	-11.9552
▁digging	-11.9555
▁tumble	-11.9563
▁blink	-11.9563
▁storm	-11.9563
▁nyx	-11.9574
▁insole	-11.958
▁clamp	-11.9581
plan	-11.9587
▁fiance	-11.9591
▁circulation	-11.9595
▁horton	-11.9606
▁instance	-11.9606
▁sec	-11.9606
................	-11.9613
▁lush	-11.9614
never	-11.9616
▁sparkly	-11.9626
▁continuously	-11.9626
▁planned	-11.9629
▁spotless	-11.963
▁flowery	-11.9633
▁swollen	-11.9639
▁tire	-11.964
better	-11.9642
▁fee	-11.9643
▁gps	-11.9647
▁absorbancy	-11.965
▁dha	-11.9655
▁frustration	-11.9655
▁cottonelle	-11.9656
▁reward	-11.9667
▁definition	-11.9671
▁trunk	-11.9671
▁asthma	-11.9671
▁hellman	-11.9678
▁bloated	-11.9678
▁conventional	-11.9682
grade	-11.9687
charge	-11.9688
▁vac	-11.9691
▁gimmick	-11.9693
▁randomly	-11.9696
contin	-11.9697
▁exceed	-11.9698
▁approx	-11.9715
▁electrolyte	-11.9715
rol	-11.9721
hydr	-11.9723
▁corgi	-11.9725
▁gourmet	-11.9726
pie	-11.9727
▁journey	-11.9731
▁nourish	-11.9737
wood	-11.9742
▁controller	-11.9746
▁offensive	-11.9748
▁peaceful	-11.9755
▁vision	-11.9756
volution	-11.9759
▁inaccurate	-11.9759
▁qualities	-11.9764
▁pricier	-11.977
▁pooch	-11.9772
▁cleanliness	-11.9775
▁mash	-11.9785
▁spritz	-11.9786
▁biscuit	-11.9786
each	-11.9791
▁duvet	-11.9792
▁handbag	-11.9801
lift	-11.9801
▁retinol	-11.9808
▁advil	-11.9808
▁hefty	-11.9808
▁classy	-11.9813
turn	-11.9821
oma	-11.9824
▁attaches	-11.9826
▁bow	-11.9831
▁coco	-11.9833
▁flax	-11.9835
▁dissatisfied	-11.9836
▁october	-11.9836
▁2014	-11.9836
▁inconsistent	-11.9852
▁muzzle	-11.9852
▁chipped	-11.9868
▁permanently	-11.9881
▁oxo	-11.9886
ologist	-11.9889
▁nest	-11.9894
▁november	-11.9908
▁ingest	-11.9912
recommend	-11.9919
▁dramatically	-11.992
▁whipped	-11.9921
▁emergen	-11.993
▁princess	-11.9941
▁sneeze	-11.9941
▁cruise	-11.9947
▁memories	-11.9958
without	-11.9967
▁religiously	-11.9969
▁jarrow	-11.9972
▁phase	-11.9981
▁munch	-11.9982
▁froth	-11.9985
▁suitcase	-11.9987
▁wary	-11.9992
▁gun	-11.9993
▁detangler	-11.9994
conditioner	-11.9998
▁nip	-11.9998
black	-11.9999
cloth	-12
▁5-6	-12.0002
▁thanksgiving	-12.0003
▁accustomed	-12.0009
▁nauseous	-12.0014
▁baker	-12.0015
▁divider	-12.0016
▁thousand	-12.002
▁altogether	-12.0026
▁patience	-12.0026
▁pantene	-12.0026
▁dissipate	-12.0031
▁humidifier	-12.0037
▁hormone	-12.0043
▁sippy	-12.0044
▁organizer	-12.0048
▁peroxide	-12.0054
▁cuddle	-12.0065
▁indian	-12.0068
▁recycled	-12.0069
▁wobble	-12.0077
stumbled	-12.0082
▁breastfeed	-12.0083
:1.	-12.0085
▁russell	-12.0105
home	-12.0108
smooth	-12.011
▁illness	-12.0126
▁blot	-12.0134
▁producing	-12.0139
▁tempted	-12.0144
▁palmolive	-12.0145
▁swish	-12.0147
▁driver	-12.0148
▁hives	-12.0152
▁nutrish	-12.0152
bought	-12.0158
▁enclosed	-12.0162
▁tsp	-12.0164
▁fortune	-12.0169
▁porridge	-12.0173
▁champ	-12.0182
▁chipping	-12.0196
▁urinary	-12.0196
▁aesthetic	-12.0196
▁auburn	-12.0208
▁hygienist	-12.0219
nothing	-12.023
▁carseat	-12.0231
▁lung	-12.0237
▁uv	-12.0238
▁energized	-12.0242
including	-12.0244
▁challenging	-12.0248
▁activation	-12.0248
▁savory	-12.0252
▁chlorine	-12.0254
▁preparation	-12.0265
▁socket	-12.0267
▁dear	-12.0267
▁aspartame	-12.0271
!!!!!!!!!!!!!!!!	-12.0279
▁smoker	-12.0286
▁mustache	-12.0287
▁grasp	-12.0294
▁squash	-12.0295
▁freedom	-12.0295
▁petsmart	-12.0296
▁rotation	-12.03
▁inhale	-12.0304
▁london	-12.0306
▁bodies	-12.0306
▁disturb	-12.0317
▁replenish	-12.0317
▁nyquil	-12.0317
▁exercising	-12.0329
▁cigar	-12.0346
help	-12.0351
sugar	-12.0362
▁cradle	-12.0364
▁countless	-12.0369
▁navy	-12.0371
▁dehydrated	-12.0393
▁clipping	-12.0398
▁wallet	-12.0402
▁scrunch	-12.0405
▁sprout	-12.0411
much	-12.0414
fact	-12.0418
▁fulfill	-12.0422
▁slid	-12.0424
rita	-12.0454
▁voice	-12.0459
▁dropper	-12.046
▁biotin	-12.0464
1/2	-12.0471
▁travelling	-12.0492
▁rewash	-12.0514
▁wireless	-12.0522
▁ortho	-12.0523
▁percentage	-12.0524
life	-12.0528
▁cocktail	-12.0535
▁attribute	-12.0546
▁mastiff	-12.0546
▁voltage	-12.0547
▁realistic	-12.0552
▁nonetheless	-12.0552
▁cvs	-12.0565
▁soreness	-12.057
▁fudge	-12.057
▁approve	-12.0578
▁dispensing	-12.0582
▁spoke	-12.0582
until	-12.0586
▁fuel	-12.0597
▁cerave	-12.06
▁gerber	-12.06
▁interfere	-12.06
▁buddy	-12.0606
▁staff	-12.0614
▁apricot	-12.0618
▁structure	-12.0618
▁scarf	-12.0618
▁2013	-12.0623
▁sch	-12.0623
doesn	-12.0635
▁fluke	-12.064
▁disney	-12.0642
pinchme	-12.0646
wow	-12.0647
walk	-12.0653
▁seaweed	-12.0654
▁wanna	-12.0666
▁petsafe	-12.0675
rite	-12.0676
▁mature	-12.0678
▁satisfies	-12.0678
▁cash	-12.0679
▁sweetner	-12.0682
▁braid	-12.0687
▁reddish	-12.0696
▁foul	-12.0699
▁presentation	-12.0703
position	-12.0716
▁optimum	-12.072
always	-12.0725
▁flame	-12.073
▁dimmer	-12.0733
▁bracket	-12.0738
▁pharmacy	-12.0738
▁supplied	-12.0744
▁pistachio	-12.0763
cheap	-12.0765
▁4.5	-12.0773
▁benadryl	-12.0781
▁delay	-12.0782
▁pepperoni	-12.0787
▁australian	-12.0788
▁artist	-12.0798
▁24/7	-12.0799
▁latex	-12.0806
found	-12.0811
▁rosacea	-12.0811
▁10-15	-12.0811
▁recycle	-12.0819
▁menthol	-12.0824
▁discard	-12.0824
▁spearmint	-12.083
▁steer	-12.0836
unless	-12.0841
▁palatable	-12.0848
▁airtight	-12.0848
sometimes	-12.0853
▁carrot	-12.0854
▁conclusion	-12.0854
second	-12.0865
▁preparing	-12.0872
▁bridge	-12.0875
▁classroom	-12.0879
contest	-12.088
▁incorporate	-12.0885
▁drastically	-12.0897
open	-12.0898
▁sensi	-12.0906
circ	-12.0914
▁folgers	-12.0916
▁lavazza	-12.0916
▁sucralose	-12.0916
▁retractable	-12.0924
▁alkaline	-12.0946
▁rigid	-12.0946
▁stepping	-12.0948
▁grail	-12.0965
unfortunately	-12.0983
▁gatorade	-12.0984
▁america	-12.0986
▁vital	-12.0989
▁intention	-12.099
▁restful	-12.0994
▁reinforce	-12.1002
▁voila	-12.1015
▁proceed	-12.1015
▁monday	-12.1016
▁hind	-12.1017
between	-12.102
▁nestle	-12.1021
▁pike	-12.1029
another	-12.1036
▁sterilize	-12.1052
▁horrid	-12.1065
▁supper	-12.1072
▁roommate	-12.1073
▁pronounce	-12.1077
▁yank	-12.1083
guard	-12.1085
▁icky	-12.1101
▁rotating	-12.1108
▁drum	-12.1109
phil	-12.1111
▁cardio	-12.1113
▁satisfactory	-12.1115
▁influence	-12.1115
▁flashlight	-12.1148
▁fig	-12.1148
▁genuine	-12.1158
▁potassium	-12.1159
▁spike	-12.1165
▁diamond	-12.1178
▁sensitivities	-12.1178
pure	-12.118
▁february	-12.1184
▁theater	-12.1193
▁obtain	-12.1198
▁dietary	-12.1199
▁genuinely	-12.1204
▁blowout	-12.1205
▁environmental	-12.1208
▁breastmilk	-12.121
▁tortilla	-12.1216
▁traffic	-12.1216
▁apprehensive	-12.1229
▁intensive	-12.1229
▁porcelain	-12.1229
▁revitalift	-12.1229
oops	-12.123
▁clue	-12.1235
▁panties	-12.1241
▁resemble	-12.1254
▁wifi	-12.1262
▁dude	-12.1276
▁sunny	-12.1278
soap	-12.128
▁disabled	-12.1286
▁0.5	-12.1291
▁lozenge	-12.1299
▁pivot	-12.1299
▁football	-12.1309
▁rosemary	-12.1312
except	-12.132
▁oreo	-12.1323
▁brazil	-12.1324
▁queen	-12.1325
▁marinade	-12.1331
▁seafood	-12.1331
▁statement	-12.1334
▁nicu	-12.1339
▁oder	-12.134
▁unfold	-12.1344
▁insect	-12.1345
▁forgotten	-12.1345
▁vinyl	-12.135
cel	-12.1355
▁vertical	-12.1361
▁mush	-12.1362
▁flushable	-12.1363
▁reccommend	-12.1369
▁crowd	-12.1376
▁mince	-12.1388
▁marshmallow	-12.1389
existent	-12.1392
▁brunette	-12.1402
tree	-12.1405
▁apparent	-12.1407
▁pomeranian	-12.1408
▁tattoo	-12.1408
▁incident	-12.1415
▁crappy	-12.1416
▁snot	-12.1417
▁deciding	-12.1421
▁southern	-12.1434
▁glob	-12.1435
▁compete	-12.1436
▁pray	-12.1438
▁september	-12.1441
▁fructose	-12.146
[	-12.1462
▁category	-12.1473
▁remarkable	-12.1473
▁sunlight	-12.1473
▁criticism	-12.148
▁figuring	-12.148
▁beginner	-12.1482
sleep	-12.1483
▁towelettes	-12.1486
ivity	-12.1491
▁unnatural	-12.15
▁nearby	-12.1518
▁sanitizer	-12.1524
▁bunny	-12.1533
blade	-12.1549
▁undercoat	-12.1552
probably	-12.1554
▁witch	-12.1555
▁kraft	-12.1558
▁church	-12.1565
▁crown	-12.1565
change	-12.1566
▁advertisement	-12.1571
▁contribute	-12.1571
▁visibly	-12.1571
▁pluck	-12.1571
▁disinfectant	-12.1583
plication	-12.1589
▁:-(	-12.1611
▁tastier	-12.1637
▁bookcase	-12.1638
▁bench	-12.1639
▁stabilize	-12.1644
hydrate	-12.1656
▁ribbon	-12.1657
▁trapped	-12.1659
▁paul	-12.1662
▁truffle	-12.1664
▁excuse	-12.1675
▁premie	-12.1687
▁smoky	-12.1691
extra	-12.1695
▁limescale	-12.1697
ultra	-12.1701
▁yoga	-12.1705
around	-12.1707
▁keraphix	-12.1731
▁pepto	-12.1737
▁informed	-12.1737
▁sneezing	-12.1744
▁backyard	-12.1744
▁mexican	-12.1751
wk	-12.1752
▁dumb	-12.1752
▁celiac	-12.1757
▁international	-12.1757
▁septic	-12.1757
▁unzip	-12.1771
▁immensely	-12.1784
again	-12.1797
▁continually	-12.1798
▁greyhound	-12.1804
▁vagina	-12.1812
▁neuro	-12.1812
▁macadamia	-12.1818
▁drool	-12.1818
strong	-12.182
toxic	-12.1824
▁doberman	-12.1825
▁echo	-12.183
▁errands	-12.1831
▁exposure	-12.1831
▁injured	-12.1831
▁muddy	-12.1832
▁clif	-12.1834
▁intrigued	-12.1838
▁dentastix	-12.1845
▁ourselves	-12.1852
▁pedometer	-12.1852
▁bliss	-12.1852
▁backwards	-12.1859
▁gram	-12.1869
▁impress	-12.188
▁passion	-12.1888
▁quip	-12.1892
▁2/3	-12.1893
▁rollator	-12.1897
▁tartar	-12.1905
▁recipient	-12.1913
▁lenor	-12.1913
▁bronze	-12.1919
▁spectacular	-12.1926
▁ionic	-12.1932
▁stunning	-12.1933
▁walgreens	-12.1933
▁deposit	-12.1936
▁circular	-12.1947
▁undone	-12.1954
▁suv	-12.1959
▁independent	-12.1967
▁turbo	-12.1967
▁logo	-12.1971
▁resistance	-12.1982
▁colon	-12.1983
▁imperfections	-12.1988
▁vast	-12.2001
▁chuck	-12.2009
ggie	-12.2016
▁concrete	-12.2022
usually	-12.2025
▁blah	-12.2029
▁physician	-12.2029
half	-12.2038
▁pigmentation	-12.2038
▁clever	-12.2043
▁squirm	-12.2043
▁coffe	-12.205
foot	-12.2051
▁command	-12.2057
▁discharge	-12.2065
▁midwest	-12.2078
bottom	-12.209
▁tackle	-12.2091
▁valve	-12.2092
▁itchiness	-12.2101
▁hawaii	-12.2111
▁swell	-12.2115
▁glycerin	-12.2126
piece	-12.214
▁anchor	-12.2141
▁extensive	-12.2147
glass	-12.216
▁private	-12.2161
▁frag	-12.2163
thick	-12.2166
▁masculine	-12.2175
anyway	-12.2181
▁defense	-12.2183
▁conceal	-12.2185
▁discoloration	-12.2196
heart	-12.2203
brown	-12.2208
▁angry	-12.2217
▁reputation	-12.2224
▁eatsmart	-12.2226
▁cavities	-12.2231
▁palate	-12.2233
▁chef	-12.2242
▁decoration	-12.2243
▁industry	-12.2252
▁clogging	-12.2254
▁crema	-12.2255
▁mildew	-12.2257
▁evidence	-12.2259
packaged	-12.2266
▁solely	-12.2268
▁instinct	-12.2273
▁studies	-12.2273
having	-12.2274
▁athlete	-12.2302
▁attend	-12.2305
▁fellow	-12.2313
kernel	-12.2315
▁lysol	-12.2316
▁reverse	-12.2317
▁development	-12.2321
▁simplicity	-12.2323
▁awsome	-12.2323
▁retract	-12.2342
▁syntha	-12.2344
▁bigelow	-12.2344
▁overflow	-12.2344
▁regulate	-12.2345
▁cheat	-12.2348
before	-12.2351
▁exfoliation	-12.2366
▁introduce	-12.2371
word	-12.2373
▁depression	-12.238
▁gsd	-12.239
▁refined	-12.2394
▁disposal	-12.2437
▁exam	-12.2438
▁violet	-12.2444
▁athletic	-12.2459
▁daddy	-12.2468
▁indigestion	-12.2473
scratch	-12.2473
▁roof	-12.2476
▁midnight	-12.2489
▁squirrel	-12.2495
▁beloved	-12.2495
▁begun	-12.2502
▁hershey	-12.2509
▁puncture	-12.2516
▁regime	-12.2525
same	-12.2526
purpose	-12.2531
review	-12.2532
▁manicure	-12.2538
▁ulta	-12.2538
▁unbearable	-12.2553
▁opaque	-12.256
▁wolf	-12.256
▁coast	-12.2561
▁transaction	-12.2567
▁flicker	-12.2567
▁derma	-12.2592
▁york	-12.2592
▁sky	-12.2595
▁inconvenience	-12.2596
▁marathon	-12.2603
▁attest	-12.261
inflammatory	-12.2618
▁glucosamine	-12.264
▁antibacterial	-12.264
▁silent	-12.2647
▁assured	-12.2655
▁burgundy	-12.2684
scribe	-12.2686
▁separation	-12.2699
▁launder	-12.2699
▁disintegrate	-12.2706
▁celery	-12.2714
▁vigorous	-12.2721
▁perspiration	-12.275
▁pallet	-12.2751
▁housing	-12.2759
▁decorative	-12.2759
▁leap	-12.2761
▁exterior	-12.2765
▁infused	-12.2765
▁nutramigen	-12.278
ological	-12.2785
▁thigh	-12.2786
▁vivid	-12.2795
▁assistance	-12.2796
▁quench	-12.2803
leave	-12.2808
▁parmesan	-12.2817
something	-12.2828
▁amaze	-12.2832
▁vicks	-12.2832
▁courtesy	-12.284
▁unbeatable	-12.284
▁critters	-12.2847
▁excelent	-12.2866
▁nostril	-12.2877
▁hoodie	-12.2903
▁divide	-12.2913
purchase	-12.2929
▁cocker	-12.293
▁rubbish	-12.2937
▁naturewise	-12.2946
▁syndrome	-12.2952
happy	-12.2961
▁pedigree	-12.2975
▁refrigeration	-12.2975
▁spouse	-12.2975
700	-12.2984
▁england	-12.299
▁glance	-12.2991
▁hyaluronic	-12.3005
▁youthful	-12.3006
▁gulp	-12.3006
▁knowledge	-12.3013
▁estimate	-12.3014
▁flood	-12.3021
▁flora	-12.3026
▁deodorize	-12.3028
▁unacceptable	-12.3028
▁husk	-12.3035
▁garment	-12.3038
▁quantum	-12.3043
▁technical	-12.3044
▁tremendous	-12.3051
▁whiff	-12.3052
quick	-12.3073
▁scope	-12.3081
▁isolate	-12.3087
▁discrete	-12.3097
▁genetic	-12.3105
▁greet	-12.3107
▁keratin	-12.3112
▁remedies	-12.312
▁stirring	-12.3123
▁knorr	-12.3135
▁scoot	-12.3136
▁flyaway	-12.3143
▁contrast	-12.3151
▁dissolving	-12.3151
excellent	-12.317
▁abreva	-12.3182
coffee	-12.3186
▁pesto	-12.319
▁oxygen	-12.319
chocolate	-12.3193
▁utilize	-12.3197
▁mediocre	-12.3213
▁syringe	-12.3213
▁cranberries	-12.322
▁critical	-12.3236
▁hawaiian	-12.3237
▁axe	-12.3247
putting	-12.3259
▁convince	-12.3259
▁virus	-12.3259
▁xmas	-12.3267
▁signature	-12.3268
fruit	-12.3272
▁borrow	-12.3275
▁unopened	-12.3291
▁lasagna	-12.3298
▁zyrtec	-12.3306
tasting	-12.3311
▁channel	-12.3322
▁moroccan	-12.3322
▁msg	-12.3323
▁skillet	-12.333
▁carbonated	-12.3331
▁rainbow	-12.3338
▁insurance	-12.3345
▁injuries	-12.3345
▁6-8	-12.3346
through	-12.335
▁splurge	-12.3361
▁graco	-12.3377
▁separating	-12.3393
▁vanity	-12.3395
▁verona	-12.3401
▁jello	-12.3401
▁tugging	-12.3426
crea	-12.3427
▁gauge	-12.344
▁dunkin	-12.3477
▁suprised	-12.348
▁steroid	-12.348
▁thirty	-12.3488
▁bloom	-12.3496
▁disassemble	-12.3504
▁aggravate	-12.3512
▁unbelievably	-12.3512
▁casual	-12.3512
shower	-12.3518
▁glaze	-12.3521
▁recycling	-12.3536
▁aquaphor	-12.3544
shield	-12.355
▁abso	-12.3563
▁intolerance	-12.3568
▁advert	-12.3576
▁disagree	-12.3576
▁occurred	-12.3577
▁hibiscus	-12.3584
▁landfill	-12.3584
▁vapor	-12.36
▁toffee	-12.36
▁whirl	-12.3611
▁residual	-12.3616
▁industrial	-12.3624
▁lentil	-12.3632
▁accessible	-12.3634
▁twinings	-12.3641
different	-12.3655
▁addiction	-12.3676
▁skeptic	-12.3677
▁rachel	-12.3681
▁;-)	-12.3681
▁wafer	-12.369
xxx	-12.3694
fair	-12.3702
▁4/5	-12.3706
▁duration	-12.3707
▁sumatra	-12.373
worth	-12.3737
▁slather	-12.3738
▁transparent	-12.3738
▁procedure	-12.3738
▁pellets	-12.3754
▁requiring	-12.3754
▁explore	-12.3771
▁dragging	-12.3788
▁allergen	-12.3793
▁15-20	-12.3795
suit	-12.3802
voxbox	-12.3803
▁evident	-12.3812
▁thermos	-12.3835
collar	-12.3841
total	-12.3844
▁registry	-12.3853
▁vibrating	-12.3861
▁fianc	-12.3879
▁universal	-12.3886
▁frank	-12.3896
▁petroleum	-12.3903
▁glucose	-12.3911
▁indication	-12.3911
could	-12.3919
▁japanese	-12.392
▁sloppy	-12.392
▁crumb	-12.3923
▁shook	-12.3928
▁twelve	-12.3945
▁acquired	-12.3953
▁magazine	-12.3961
▁seperate	-12.3961
▁cloying	-12.397
▁silverware	-12.3971
▁munchkin	-12.3979
▁applesauce	-12.3986
▁studio	-12.3995
▁5/5	-12.3995
▁chrome	-12.4003
▁premature	-12.4011
▁obnoxious	-12.402
▁actionpacs	-12.402
complete	-12.402
▁enthusiast	-12.4025
▁soylent	-12.4037
stream	-12.4037
▁urinate	-12.4046
▁soleil	-12.4054
▁creative	-12.4064
▁concentration	-12.4079
should	-12.4079
▁snuggly	-12.4087
▁francisco	-12.4104
▁taylor	-12.4113
▁swiss	-12.4113
▁blur	-12.4113
▁drastic	-12.4129
▁superfeet	-12.413
▁shallow	-12.4147
▁eucalyptus	-12.4155
▁puppia	-12.4155
▁insulated	-12.4164
▁puddle	-12.4173
▁translucent	-12.4181
▁terrified	-12.419
▁deluxe	-12.4198
▁caddy	-12.4207
▁river	-12.4207
▁luggage	-12.4215
▁relieving	-12.4215
▁conversation	-12.4232
▁activate	-12.4234
▁groove	-12.424
▁botanical	-12.4241
▁airplane	-12.4241
▁drizzle	-12.4249
▁crayon	-12.4249
▁pungent	-12.4267
▁picnic	-12.4267
▁volt	-12.4275
▁visitors	-12.4276
sigh	-12.4304
▁girth	-12.431
▁sisal	-12.4319
▁innovative	-12.4336
▁penetrate	-12.4336
▁british	-12.4336
▁seemingly	-12.4337
▁discuss	-12.4345
▁taught	-12.4353
▁unruly	-12.4379
▁soccer	-12.4379
▁massaging	-12.4388
▁hazel	-12.4397
▁author	-12.4406
▁origin	-12.4422
brainer	-12.443
▁national	-12.4432
▁orchid	-12.4441
▁shinny	-12.445
build	-12.4452
▁nyc	-12.4453
▁kirkland	-12.4458
▁sensodyne	-12.4467
▁knick	-12.4476
▁nevertheless	-12.4476
▁hamburger	-12.4493
▁sandpaper	-12.4493
▁bergamot	-12.452
▁excitement	-12.452
▁rottweiler	-12.452
▁facility	-12.4529
▁nicotine	-12.4529
dairy	-12.4532
▁explosion	-12.4537
heavy	-12.454
▁versatility	-12.4546
▁gummi	-12.4562
▁employee	-12.4564
▁endurance	-12.4564
▁responsible	-12.4564
▁extent	-12.4564
attach	-12.4593
▁outrageous	-12.4609
▁celeb	-12.4609
▁radio	-12.4611
▁basset	-12.4617
▁dockatot	-12.4626
girl	-12.4627
▁supreme	-12.4635
▁glycol	-12.4644
▁halogen	-12.4662
▁introducing	-12.4662
▁competing	-12.4671
▁theraflu	-12.468
▁pkg	-12.468
▁bassinet	-12.4689
▁smudging	-12.4689
protein	-12.4693
▁emptied	-12.4698
▁problematic	-12.4707
▁carbohydrate	-12.4716
5.00	-12.4726
▁enormous	-12.4734
▁famous	-12.4752
▁reapplied	-12.477
▁companion	-12.4779
▁overseas	-12.4779
▁arizona	-12.4788
▁loosing	-12.4798
▁jersey	-12.4825
▁spell	-12.4825
▁outweigh	-12.4833
▁straightforward	-12.4843
▁pliable	-12.4843
ville	-12.4855
▁culturelle	-12.4861
▁tolerance	-12.4861
▁suppress	-12.488
protect	-12.4885
formula	-12.4897
▁accumulate	-12.4898
▁metabolism	-12.4898
▁seatbelt	-12.4898
▁hummus	-12.4898
▁sluggish	-12.4907
▁depot	-12.4907
▁kudos	-12.4916
▁density	-12.4916
complimentary	-12.4931
▁clumsy	-12.4935
▁frequency	-12.4944
serving	-12.4945
▁faux	-12.4962
▁macaroni	-12.4981
▁columbia	-12.499
▁crevice	-12.499
▁relationship	-12.5009
▁blotchy	-12.5018
▁drawstring	-12.5018
▁clarity	-12.5027
▁perforation	-12.5027
▁assembling	-12.5037
▁veterinarian	-12.5037
▁unstable	-12.5037
▁engage	-12.5037
▁flesh	-12.5037
▁meatballs	-12.5037
▁inviting	-12.5046
▁sideways	-12.5046
▁varnish	-12.5055
▁heartbeat	-12.5065
▁adventure	-12.5065
▁voluminous	-12.5074
▁married	-12.5074
▁stitches	-12.5093
▁mickey	-12.5102
▁efficiency	-12.5111
▁tumeric	-12.5111
▁vodka	-12.5111
▁discourage	-12.514
▁pimple	-12.5145
drop	-12.5146
▁xylitol	-12.5149
▁babyliss	-12.5149
▁cushy	-12.5158
▁jewel	-12.5171
▁intermittent	-12.5177
▁temptation	-12.5177
▁tbsp	-12.5196
▁crinkle	-12.5206
▁possibility	-12.5244
▁drift	-12.5244
▁faith	-12.5247
▁colleague	-12.5253
▁horrendous	-12.5263
▁repellent	-12.5263
▁granules	-12.5272
▁dubious	-12.531
▁edition	-12.531
▁toxins	-12.5311
▁military	-12.532
▁generate	-12.532
▁elderberry	-12.5329
▁exfoliator	-12.5329
▁masque	-12.5339
▁temporarily	-12.5349
▁chubby	-12.5358
▁fortunate	-12.536
install	-12.5366
chemical	-12.5366
special	-12.5378
▁emergencies	-12.5387
pull	-12.5391
▁mexico	-12.5397
▁undamaged	-12.5397
▁dimmable	-12.5397
▁rachael	-12.5435
▁strike	-12.5445
▁associate	-12.5449
▁rinds	-12.5455
